<pad>	0
<unk>	0
<s>	0
</s>	0
▁ক	-0
াৰ	-1
য়	-2
▁প	-3
▁ব	-4
▁আ	-5
্ৰ	-6
▁স	-7
▁হ	-8
▁কৰ	-9
িল	-10
্য	-11
▁এ	-12
▁ম	-13
ান	-14
▁অ	-15
্ত	-16
ছিল	-17
ৰু	-18
▁দ	-19
▁ন	-20
তে	-21
ৰা	-22
িক	-23
▁চ	-24
▁আৰু	-25
▁প্ৰ	-26
িত	-27
্ব	-28
▁য	-29
িয়	-30
্ট	-31
▁কৰি	-32
▁হৈ	-33
▁গ	-34
▁ল	-35
ৰ্	-36
ছে	-37
াই	-38
▁বি	-39
াল	-40
▁ভ	-41
▁জ	-42
▁বা	-43
▁তে	-44
▁উ	-45
িন	-46
▁ই	-47
ওঁ	-48
▁শ	-49
ীয়	-50
▁তেওঁ	-51
াত	-52
টো	-53
ষ্ট	-54
্ষ	-55
াম	-56
ৰি	-57
ন্	-58
তি	-59
▁কৰা	-60
োৱ	-61
াক	-62
নৰ	-63
েল	-64
▁সম	-65
ায়	-66
ৰে	-67
▁ত	-68
লৈ	-69
কল	-70
টা	-71
বে	-72
্থ	-73
্প	-74
▁এই	-75
▁১	-76
াপ	-77
▁নি	-78
▁ৰা	-79
▁কৰিছিল	-80
্র	-81
▁হৈছিল	-82
্ড	-83
▁খ	-84
োৰ	-85
োক	-86
▁অন	-87
▁ফ	-88
্চ	-89
াহ	-90
▁বাবে	-91
খন	-92
ক্ষ	-93
▁এক	-94
▁২	-95
াস	-96
▁পৰা	-97
োগ	-98
ৱে	-99
ক্ত	-100
ুল	-101
িয়া	-102
জন	-103
ৰত	-104
▁হৈছে	-105
▁হয়	-106
োৱা	-107
ণ্ড	-108
▁ৰ	-109
ীৰ	-110
ভা	-111
▁থ	-112
নত	-113
ন্ত	-114
▁কৰিব	-115
িব	-116
মূ	-117
েই	-118
িৰ	-119
্ধ	-120
▁সং	-121
াৰে	-122
▁ছ	-123
▁ড	-124
াব	-125
▁ইয়	-126
▁ব্য	-127
সকল	-128
মূহ	-129
্ল	-130
িছ	-131
োন	-132
▁পৰি	-133
▁এটা	-134
না	-135
ন্দ	-136
▁২০	-137
ুৰ	-138
▁ধ	-139
কা	-140
▁কৰে	-141
মান	-142
▁আছিল	-143
াৰত	-144
নি	-145
ষ্	-146
সমূহ	-147
্ৰী	-148
েত	-149
দ্ধ	-150
▁আপ	-151
েন	-152
েশ	-153
াজ	-154
স্থ	-155
াদ	-156
▁ট	-157
িচ	-158
ৃত	-159
▁অনু	-160
কাৰ	-161
ৰণ	-162
▁আছে	-163
▁উপ	-164
াগ	-165
ুক্ত	-166
▁ভাৰত	-167
▁চনৰ	-168
▁১৯	-169
▁পৰ	-170
েট	-171
্ক	-172
াধ	-173
মা	-174
ষ্ঠ	-175
▁সৈ	-176
▁প্ৰতি	-177
বোৰ	-178
▁ৰাজ	-179
▁ব্যৱ	-180
▁বিশ	-181
স্ত	-182
েৰ	-183
বি	-184
▁ও	-185
▁অধ	-186
িট	-187
লোক	-188
্ভ	-189
ষ্ট্ৰ	-190
▁সৈতে	-191
ুত	-192
▁ঘ	-193
ীত	-194
াৰণ	-195
কৈ	-196
ণ্ট	-197
ছৰ	-198
▁তেওঁলোক	-199
ুৱ	-200
▁তেওঁৰ	-201
▁অৱ	-202
হাৰ	-203
▁চনত	-204
ঞ্চ	-205
▁পা	-206
ুলি	-207
▁ইয়াৰ	-208
▁দু	-209
কে	-210
ধান	-211
▁কে	-212
▁সময়	-213
▁যে	-214
▁বে	-215
▁আম	-216
▁খেল	-217
▁মু	-218
্ম	-219
▁প্র	-220
লত	-221
্ন	-222
▁আৰ	-223
ম্প	-224
ংশ	-225
িছিল	-226
েক	-227
▁পাৰে	-228
▁হিচ	-229
▁হিচাপ	-230
ীয়ে	-231
গ্ৰ	-232
েখ	-233
োৱাৰ	-234
ৰ্ণ	-235
▁হিচাপে	-236
যোগ	-237
▁স্থ	-238
▁আন	-239
▁বুলি	-240
▁লগ	-241
ড়	-242
▁থকা	-243
▁কৰাৰ	-244
ত্ত	-245
▁২০১	-246
্দ	-247
লে	-248
ীয়া	-249
▁ভিত	-250
িং	-251
ৰ্ব	-252
▁দ্ব	-253
▁জন	-254
▁ক্ষ	-255
▁কৰিবলৈ	-256
িকা	-257
▁যি	-258
▁গু	-259
িম	-260
ম্ভ	-261
▁অভ	-262
▁বহ	-263
▁সম্প	-264
িপ	-265
য়ে	-266
দি	-267
▁আগ	-268
খ্য	-269
ুন	-270
▁আপোন	-271
াভ	-272
িয়াৰ	-273
ভাৱে	-274
০০	-275
▁স্ব	-276
▁লোক	-277
▁উদ	-278
▁এখন	-279
ৰৰ	-280
েষ	-281
থম	-282
ক্ৰ	-283
াৰা	-284
্জ	-285
ুনি	-286
তা	-287
প্ৰ	-288
িয়ে	-289
▁ব্যৱহাৰ	-290
▁কাৰ	-291
ান্ত	-292
▁(	-293
▁সাম	-294
কী	-295
িত্ৰ	-296
▁নিৰ্	-297
▁সহ	-298
াৰি	-299
ৰ্ত	-300
▁বিশ্ব	-301
্স	-302
নে	-303
লৰ	-304
েম	-305
▁থাক	-306
িশ	-307
▁বিষ	-308
▁আপুনি	-309
বা	-310
ছত	-311
▁মহ	-312
▁সেই	-313
ৎস	-314
চ্চ	-315
▁অধিক	-316
▁চল	-317
▁ভিতৰত	-318
াৰৰ	-319
সকলৰ	-320
্যৰ	-321
সকলে	-322
গত	-323
কৰ	-324
▁হোৱা	-325
▁কো	-326
▁প্ৰদ	-327
▁মাজ	-328
য়ো	-329
▁প্ৰথম	-330
▁ৰে	-331
▁আৰম্ভ	-332
▁প্ৰধান	-333
▁নাম	-334
িজ	-335
থা	-336
মাণ	-337
ংগ	-338
ঢ়	-339
ানৰ	-340
▁ওপ	-341
▁গ্ৰ	-342
▁পিছ	-343
▁আপোনাৰ	-344
হৰ	-345
ত্য	-346
ূৰ্ণ	-347
▁মই	-348
মন্ত	-349
▁লাভ	-350
▁মান	-351
▁অংশ	-352
▁দেশ	-353
াধাৰণ	-354
▁সু	-355
িন্ত	-356
টোৰ	-357
▁কাম	-358
ভাৱ	-359
▁কা	-360
▁পু	-361
সমূহৰ	-362
াৰ্	-363
▁মূ	-364
▁বৃ	-365
▁যদি	-366
▁না	-367
▁আহ	-368
ৃত্য	-369
ন্ধ	-370
হণ	-371
োল	-372
ন্দ্ৰ	-373
ৰ্থ	-374
ালয়	-375
ূপ	-376
▁অঞ্চ	-377
▁দেখ	-378
ৈছিল	-379
▁নিজ	-380
▁তেওঁলোকৰ	-381
▁পূ	-382
▁কৰিছে	-383
তকৈ	-384
ীন	-385
েষ্ট	-386
▁চৰ	-387
▁সে	-388
▁বছৰ	-389
োঁ	-390
োনো	-391
▁ওপৰত	-392
▁আই	-393
ৱা	-394
▁ইয়াক	-395
তিক	-396
▁কিছ	-397
োধ	-398
▁ৰাজ্য	-399
▁ক্ষেত	-400
গৰা	-401
▁কিছু	-402
▁ব্ৰ	-403
▁স্থান	-404
▁সাধাৰণ	-405
ঞ্জ	-406
▁সময়ত	-407
্বৰ	-408
▁পাছত	-409
▁কম	-410
▁উত্ত	-411
িউ	-412
▁দিয়া	-413
স্থিত	-414
ন্ম	-415
▁অনুষ্ঠ	-416
াচ	-417
ছি	-418
▁২০০	-419
ীক	-420
▁ভাৰতৰ	-421
▁ফলত	-422
▁প্ৰায়	-423
▁প্ৰধানমন্ত	-424
▁আমেৰ	-425
ুট	-426
▁বিচ	-427
িনি	-428
▁পাৰ	-429
িন্তু	-430
দ্য	-431
▁কিন্তু	-432
ুক	-433
হে	-434
▁গুৰু	-435
াইছিল	-436
্ঞ	-437
▁শ্ব	-438
স্ক	-439
▁এজন	-440
েৰে	-441
খনৰ	-442
▁দৰে	-443
ত্ব	-444
▁মে	-445
▁যায়	-446
ানী	-447
ৰ্শ	-448
▁ষ্ট	-449
তিয়া	-450
েতিয়া	-451
▁ভা	-452
▁৩	-453
▁লাগ	-454
▁সকল	-455
ণৰ	-456
লা	-457
াৰী	-458
▁অন্য	-459
গৰ	-460
▁যোগ	-461
▁মৃত্য	-462
টাই	-463
্ৰে	-464
স্য	-465
▁ৰাষ্ট্ৰ	-466
শ্চ	-467
িবলৈ	-468
তিৰ	-469
▁পিছত	-470
গৰাকী	-471
▁এইটো	-472
▁দ্বাৰা	-473
ৰ্ম	-474
▁হোৱাৰ	-475
ৃষ্ট	-476
াঁ	-477
োদ	-478
▁"	-479
িন্ন	-480
ালে	-481
াপন	-482
য়া	-483
লৈকে	-484
ঙৰ	-485
▁থাকে	-486
▁মাজত	-487
টি	-488
ৰাষ্ট্ৰ	-489
ক্তি	-490
▁বিভ	-491
▁কোনো	-492
ৰ্ক	-493
োপ	-494
িক্ষ	-495
▁বেছি	-496
▁ক্ষেত্ৰ	-497
▁উল	-498
শ্ব	-499
▁ক্ৰ	-500
শ্য	-501
▁তেওঁলোকে	-502
োচ	-503
▁বৈ	-504
▁তাৰ	-505
▁মোৰ	-506
▁ভাৰতীয়	-507
▁বিক	-508
ন্ত্ৰ	-509
যুক্ত	-510
▁কেই	-511
িয়ান	-512
▁বহুত	-513
▁কাৰ্য	-514
াত্ৰ	-515
ৰণৰ	-516
োট	-517
▁যু	-518
জি	-519
চি	-520
▁পদ	-521
িন্দ	-522
▁সকলো	-523
▁বিশেষ	-524
েণ্ট	-525
াউ	-526
▁নত	-527
ুম	-528
▁নহ	-529
োম	-530
▁দক্ষ	-531
▁কিছুমান	-532
▁নিয়	-533
ন্ন	-534
▁লগতে	-535
▁চিক	-536
▁গুৰুত্ব	-537
ষণ	-538
▁অন্ত	-539
▁ছে	-540
▁ইউ	-541
▁নতুন	-542
▁চলচ্চ	-543
েড	-544
▁মূল	-545
▁আল	-546
▁অভিন	-547
ুই	-548
▁আটাই	-549
▁তেওঁক	-550
▁চলচ্চিত্ৰ	-551
ীৱ	-552
▁চহৰ	-553
হা	-554
▁মাহ	-555
লি	-556
▁সি	-557
▁নিজৰ	-558
ডি	-559
▁বাহ	-560
▁বিভিন্ন	-561
য়োজন	-562
▁কয়	-563
িছে	-564
ালৰ	-565
টোৱে	-566
▁কথা	-567
▁ধৰি	-568
▁অস	-569
যোগিত	-570
ৱৰ্ত	-571
▁সংগ	-572
▁আটাইতকৈ	-573
▁অঞ্চল	-574
▁উৎস	-575
▁দিন	-576
▁সহায়	-577
িভ	-578
▁উত্তৰ	-579
সকলক	-580
েচ	-581
▁ঠ	-582
▁সাধাৰণতে	-583
▁নাই	-584
েপ	-585
▁ক্ষেত্ৰত	-586
বাহ	-587
▁পৰিচ	-588
▁যাৰ	-589
▁মৃত্যু	-590
লক	-591
▁৫	-592
িণ	-593
িলা	-594
▁লক্ষ	-595
াৱ	-596
ক্ৰম	-597
ণ্ডৰ	-598
▁ৰোগ	-599
ধ্য	-600
▁দিছিল	-601
িৎস	-602
▁দে	-603
ভাগ	-604
েনে	-605
▁বিষয়ে	-606
াট	-607
▁ৱ	-608
▁নদ	-609
▁পোৱা	-610
▁বৃদ্ধ	-611
ূম	-612
▁যুক্ত	-613
্ৰম	-614
র্	-615
▁৪	-616
ঁচ	-617
কাশ	-618
াসকল	-619
▁দল	-620
▁লৈ	-621
▁ভাল	-622
িষ্ট	-623
▁নিৰ্মাণ	-624
▁চিকিৎস	-625
▁অতি	-626
োহ	-627
ক্ষা	-628
জ্ঞ	-629
▁মানু	-630
ৰী	-631
য়াৰ	-632
ংক	-633
িয়ন	-634
▁নাছিল	-635
কাৰী	-636
▁সদ	-637
▁পৃ	-638
▁সৃষ্ট	-639
ালী	-640
ম্ব	-641
▁নহয়	-642
বাদ	-643
ৰ্ভ	-644
নী	-645
বাৰ	-646
▁মাৰ	-647
▁ছবি	-648
▁পৰ্য	-649
▁প্ৰশ	-650
▁স্ক	-651
এছ	-652
▁যেতিয়া	-653
েছ	-654
▁ডা	-655
ত্ৰ	-656
▁অনুস	-657
▁শ্ৰী	-658
▁দক্ষিণ	-659
▁উৎ	-660
▁কোৱা	-661
ৱেশ	-662
পূৰ্ণ	-663
▁বহু	-664
▁বু	-665
▁গৈছিল	-666
▁প্ৰদান	-667
▁বন্ধ	-668
▁উল্ল	-669
তম	-670
▁ৰাখ	-671
▁কাৰণ	-672
▁বহুতো	-673
াইন	-674
ালৈ	-675
ুপ	-676
দ্ব	-677
বিধ	-678
▁অনুষ্ঠিত	-679
▁শাস	-680
▁ৰূপ	-681
জাত	-682
জাৰ	-683
▁১৯৯	-684
▁আমেৰিকা	-685
াইট	-686
▁হিন্দ	-687
িলে	-688
▁বাৰ	-689
▁জীৱ	-690
▁সৰ্ব	-691
াকৈ	-692
▁উল্লেখ	-693
▁পূৰ্ব	-694
▁ডি	-695
▁দেখা	-696
টোত	-697
্ছ	-698
ৰিয়	-699
▁এগৰাকী	-700
িখ	-701
ৰাই	-702
ৱল	-703
▁এছ	-704
খনত	-705
লাৰ	-706
▁কেন্দ্ৰ	-707
▁চে	-708
▁মন্দ	-709
স্থা	-710
▁একে	-711
▁বিষয়	-712
▁প্ৰধানমন্ত্ৰী	-713
বল	-714
▁পুনৰ	-715
▁অপ	-716
▁সৃষ্টি	-717
▁বিপ	-718
ান্য	-719
▁জয়	-720
িটাৰ	-721
তাৰ	-722
▁কোম্প	-723
▁অৱস্থিত	-724
দ্ৰ	-725
াছ	-726
▁তথ	-727
▁আন্ত	-728
▁কৃ	-729
কাল	-730
▁ওচ	-731
ৰ্গ	-732
▁ৰাষ্ট্ৰীয়	-733
মৰ	-734
▁বৰ	-735
কাৰৰ	-736
বোৰৰ	-737
ুৱা	-738
▁অভি	-739
ৌৰ	-740
দেশ	-741
▁যুক্তৰাষ্ট্ৰ	-742
িতীয়	-743
ন্য	-744
▁সৰু	-745
▁দ্বিতীয়	-746
▁ক্ল	-747
▁শেষ	-748
াবলৈ	-749
ুৱৈ	-750
▁বয়	-751
▁দিয়ে	-752
▁স্প	-753
তৰ	-754
▁খেলুৱৈ	-755
▁বৃদ্ধি	-756
িকাৰ	-757
▁আধ	-758
াসমূহ	-759
▁১৮	-760
▁সংখ্য	-761
ৰ্ষ	-762
▁উৎপ	-763
▁দুয়ো	-764
ৰ্ড	-765
বলৈ	-766
▁এল	-767
গ্ৰী	-768
ব্য	-769
▁মুখ্য	-770
দ্যালয়	-771
▁মন্দিৰ	-772
ণি	-773
াক্ষ	-774
শ্চিম	-775
▁জান	-776
▁চি	-777
▁৬	-778
দিন	-779
াখ	-780
▁ভাষ	-781
▁কৰক	-782
ীপ	-783
▁আশ	-784
ল্প	-785
জা	-786
▁মন	-787
▁ধৰ্ম	-788
ব্ৰ	-789
▁গণ	-790
োৰে	-791
ৰিয়তে	-792
▁জৰিয়তে	-793
সং	-794
িৱ	-795
▁জন্ম	-796
য়ৰ	-797
▁অৰ্থ	-798
▁গুৰুত্বপূৰ্ণ	-799
▁কেৱল	-800
ীনত	-801
▁উচ্চ	-802
▁এনে	-803
▁এতিয়া	-804
▁৭	-805
▁ৰি	-806
পূ	-807
▁পৰিচাল	-808
▁সম্পূৰ্ণ	-809
▁যদিও	-810
▁বয়স	-811
চাৰ	-812
প্ত	-813
▁দেশৰ	-814
০০০	-815
▁ইয়াত	-816
▁শিক্ষ	-817
▁লগে	-818
▁এন	-819
▁সুৰ	-820
▁হ্ৰ	-821
▁তেতিয়া	-822
▁চন	-823
▁কেইবা	-824
▁আন্তঃ	-825
হৎ	-826
য়ন	-827
আই	-828
▁প্ৰয়োজন	-829
েশ্য	-830
▁ডাঙৰ	-831
নিক	-832
ৰুদ্ধ	-833
▁বেছিভাগ	-834
▁ব্যক্তি	-835
▁নামৰ	-836
ৱাৰ	-837
▁গঠ	-838
▁অন্যান্য	-839
▁৮	-840
▁তিনি	-841
ৰাজ	-842
িলাৰ	-843
▁পাল	-844
টাৰ	-845
▁হে	-846
ৰিক	-847
বঢ়	-848
▁আমাৰ	-849
নাৰ	-850
ুক্তি	-851
▁অধ্য	-852
▁পৰিছিল	-853
▁২০২	-854
▁সংগীত	-855
▁বৰ্ত	-856
▁ধন	-857
▁ঘট	-858
িড	-859
লী	-860
▁আগবঢ়	-861
দৰ	-862
ঙ্	-863
▁গ্ৰহণ	-864
ফল	-865
▁তথা	-866
ণী	-867
▁আক	-868
▁জল	-869
াড	-870
▁গোট	-871
▁জনা	-872
▁প্ৰতিষ্ঠ	-873
ন্স	-874
▁পথ	-875
সমূহত	-876
▁চাৰি	-877
▁মুকল	-878
ংস	-879
▁শিল	-880
▁উদ্য	-881
ক্স	-882
▁মোদ	-883
দান	-884
▁কি	-885
সায়	-886
▁প্ৰধানমন্ত্ৰ	-887
▁১৯৮	-888
▁বাস	-889
▁শতিক	-890
োব	-891
▁ব্ৰিট	-892
▁বিৰুদ্ধ	-893
তিহ	-894
াইৰ	-895
▁যিটো	-896
▁বিৰুদ্ধে	-897
াপ্ত	-898
▁দিশ	-899
াধিক	-900
ূপে	-901
▁যুদ্ধ	-902
▁বৰ্তমান	-903
▁আমি	-904
▁প্ৰস্ত	-905
ুখ	-906
▁‘	-907
▁সন্ম	-908
▁অৱশ্য	-909
কল্প	-910
▁নিৰ্ব	-911
েষ্টা	-912
▁বেল	-913
েহ	-914
▁হিন্দু	-915
ভাৰ	-916
▁অভিনয়	-917
▁যোৱা	-918
▁অৱশ্যে	-919
▁ভূম	-920
▁সম্পৰ্ক	-921
▁মুকলি	-922
▁মাল	-923
োজ	-924
▁পাৰি	-925
▁অনুসৰি	-926
▁হাৰ	-927
▁প্ৰভাৱ	-928
▁লিখ	-929
▁অনুম	-930
▁পৰিয়	-931
▁দুটা	-932
িত্ব	-933
টৰ	-934
ীল	-935
▁পৃথ	-936
▁গা	-937
▁বিন	-938
▁প্ৰকাশ	-939
▁শ্ৰে	-940
▁অনুষ্ঠান	-941
▁মা	-942
▁পে	-943
▁উন্ন	-944
িকভাৱে	-945
▁বিত	-946
▁হাত	-947
গ্ৰহণ	-948
▁আগতে	-949
▁পশ্চিম	-950
▁১৯৭	-951
▁দেৱ	-952
ন্তে	-953
▁লাগিব	-954
▁সূ	-955
দৰে	-956
চৰ	-957
▁তাল	-958
াৰ্থ	-959
▁তেন্তে	-960
▁ইণ্ড	-961
▁যুক্তৰাষ্ট্ৰৰ	-962
মে	-963
ঙ্গ	-964
াশ	-965
▁নিউ	-966
▁পৰী	-967
জৰ	-968
্ভাৱ	-969
▁কৃষ	-970
▁সদস্য	-971
▁আদ	-972
্যায়	-973
▁নৰে	-974
ষণা	-975
াইছে	-976
▁পৰম্প	-977
▁পৰিমাণ	-978
▁দী	-979
ান্ধ	-980
▁কোম্পানী	-981
▁তুল	-982
তো	-983
▁চনলৈকে	-984
▁ফুট	-985
▁নদী	-986
▁নেত	-987
▁গৈ	-988
▁পুৰ	-989
াইক	-990
িল্ল	-991
▁পেল	-992
▁গে	-993
িকান	-994
▁কু	-995
ড়িত	-996
▁ৱে	-997
▁সংস্ক	-998
▁লক্ষ্য	-999
াইল	-1000
েণ্ড	-1001
▁উৎসৱ	-1002
▁খাদ	-1003
▁নিৰ্বাচ	-1004
▁কল	-1005
▁১০	-1006
িবোৰ	-1007
▁থাকিব	-1008
▁অন্তৰ্ভ	-1009
▁৯	-1010
▁ঔ	-1011
ক্ট	-1012
▁প্ৰতিযোগিত	-1013
ঢ়ি	-1014
ুৱাৰ	-1015
পি	-1016
▁উপল	-1017
জনক	-1018
ক্ৰমণ	-1019
▁বিমান	-1020
ন্দৰ	-1021
ৈতিক	-1022
▁ইন	-1023
িয়াম	-1024
▁গাঁ	-1025
▁ব্যৱসায়	-1026
▁পৰিৱৰ্ত	-1027
▁নৰেন্দ্ৰ	-1028
▁সী	-1029
▁বস্ত	-1030
▁যিয়ে	-1031
▁সামগ্ৰী	-1032
িনী	-1033
▁ট্ৰ	-1034
▁সমস্য	-1035
▁প্ৰদেশ	-1036
▁স্থাপন	-1037
কাৰে	-1038
টোক	-1039
▁দশ	-1040
▁উঠ	-1041
▁১৫	-1042
▁মধ্য	-1043
▁নক	-1044
▁আত	-1045
▁ধৰণৰ	-1046
▁বৃহৎ	-1047
▁লাগে	-1048
ঘাত	-1049
ষ্ণ	-1050
▁অন্তৰ্ভুক্ত	-1051
▁তথ্য	-1052
▁জড়িত	-1053
িয়াই	-1054
কত	-1055
▁কৰাত	-1056
▁মাহত	-1057
▁প্ৰত	-1058
▁উৎপাদ	-1059
ব্দ	-1060
▁কিল	-1061
▁চিন	-1062
ানীৰ	-1063
▁প্ৰদৰ্শ	-1064
▁ঋ	-1065
াৰিত	-1066
শ্চিত	-1067
▁ইং	-1068
েগ	-1069
▁দূ	-1070
▁পৰম্পৰা	-1071
োৱাত	-1072
তিহাস	-1073
▁আৱ	-1074
েক্স	-1075
▁ৰাজ্যৰ	-1076
স্প	-1077
াতে	-1078
▁১৭	-1079
▁তাম	-1080
▁স্থানীয়	-1081
▁কান	-1082
▁যথ	-1083
লেণ্ড	-1084
সমূহে	-1085
▁কেতিয়া	-1086
▁ব্ৰিটিছ	-1087
▁সিদ্ধ	-1088
▁বিশ্বাস	-1089
▁ৰখ	-1090
▁দিল্ল	-1091
লনি	-1092
াস্থ	-1093
্রী	-1094
▁ঠাই	-1095
াবোৰ	-1096
▁শক্ত	-1097
ওক	-1098
ুৰি	-1099
▁ছি	-1100
▁দিব	-1101
ুব	-1102
েম্ব	-1103
▁হ্ৰাস	-1104
▁লগত	-1105
▁বিজ	-1106
▁বুজ	-1107
▁লোকৰ	-1108
▁বয়সত	-1109
শোধ	-1110
▁আঁ	-1111
ান্তৰ	-1112
▁কৈছিল	-1113
ছল	-1114
▁১৯৬	-1115
গ্ৰহ	-1116
▁স্ত	-1117
▁অৰ্	-1118
প্ৰিয়	-1119
সূ	-1120
▁যথেষ্ট	-1121
▁পাইছিল	-1122
ৰ্ঘ	-1123
▁সা	-1124
▁প্ৰত্য	-1125
বোৰে	-1126
▁ভ্ৰম	-1127
্ভৱ	-1128
▁শিশ	-1129
▁ঘো	-1130
▁সমগ্ৰ	-1131
ডে	-1132
▁জনপ্ৰিয়	-1133
▁প্রতি	-1134
▁সন্	-1135
▁বিচাৰ	-1136
▁মিল	-1137
▁পৌৰ	-1138
ৰুষ	-1139
▁সম্প্ৰ	-1140
েটৰ	-1141
ৃতি	-1142
▁সহযোগিত	-1143
▁বল	-1144
ক্ষণ	-1145
াক্ত	-1146
ৰাষ্ট্ৰীয়	-1147
ঁজ	-1148
মত	-1149
ানে	-1150
▁সময়ৰ	-1151
▁কাল	-1152
▁শব্দ	-1153
▁চেষ্টা	-1154
ৰোধ	-1155
▁কিলোম	-1156
পথ	-1157
সংখ্য	-1158
▁কৰাটো	-1159
জনে	-1160
▁লী	-1161
▁পৰিক	-1162
টাও	-1163
▁উই	-1164
▁সেৱা	-1165
▁নিয়ন্ত্ৰ	-1166
▁কাউ	-1167
▁অন্যতম	-1168
খনে	-1169
▁গঠন	-1170
▁সলনি	-1171
চনা	-1172
▁চহ	-1173
▁১২	-1174
স্বৰ	-1175
▁এম	-1176
▁অৱস্থ	-1177
▁চেম্প	-1178
▁প্ৰচ	-1179
্ৰীষ্ট	-1180
▁আন্তঃৰাষ্ট্ৰীয়	-1181
▁দলৰ	-1182
▁ফ্ৰ	-1183
▁চৰিত্ৰ	-1184
▁ব্যৱস্থা	-1185
চিত	-1186
▁প্ল	-1187
ডিঅ	-1188
ামূ	-1189
▁আজি	-1190
▁আয়	-1191
▁জৈ	-1192
ফালে	-1193
▁লে	-1194
িয়োগ	-1195
▁আত্ম	-1196
ুত্ৰ	-1197
▁বঁ	-1198
ছো	-1199
▁লোৱা	-1200
▁খাদ্য	-1201
▁কেইবাটাও	-1202
▁কাপ	-1203
▁গীত	-1204
▁ভাৰতত	-1205
▁সম্ভাৱ	-1206
▁পালন	-1207
▁প্ৰায়ে	-1208
▁উপস্থিত	-1209
▁তামিল	-1210
▁মূল্য	-1211
▁পৰিৱেশ	-1212
▁নিশ্চিত	-1213
▁উদ্যোগ	-1214
িও	-1215
িকাশ	-1216
ক্ষম	-1217
িয়াত	-1218
▁কৰ্ম	-1219
▁চেম্পিয়ন	-1220
▁বিচাৰি	-1221
মিত	-1222
লাই	-1223
▁গ্ৰী	-1224
▁চিকিৎসা	-1225
▁সিদ্ধান্ত	-1226
স্	-1227
লিম্প	-1228
গা	-1229
িফ	-1230
▁বছ	-1231
▁ভাৰ	-1232
শীল	-1233
্ৰাজ	-1234
▁বিকাশ	-1235
▁কিলোমিটাৰ	-1236
▁যিক	-1237
▁ঘোষণা	-1238
যোগ্য	-1239
▁স্বাস্থ	-1240
নিৰ	-1241
▁নে	-1242
▁স্ম	-1243
▁পৰে	-1244
লেণ্ডৰ	-1245
▁১৬	-1246
োচনা	-1247
▁ফ্ল	-1248
▁১৯৫	-1249
▁প্ৰকল্প	-1250
▁উদয	-1251
▁ছুই	-1252
▁জাপ	-1253
োষ	-1254
নাত	-1255
পাত	-1256
▁তাত	-1257
বিধা	-1258
বোৰত	-1259
▁মিন	-1260
ন্থ	-1261
▁আহিছে	-1262
▁শতিকাৰ	-1263
▁বিজ্ঞ	-1264
্তি	-1265
▁থকাৰ	-1266
▁দিয়াৰ	-1267
ণত	-1268
মূলক	-1269
ড়া	-1270
▁উদাহ	-1271
বৰ	-1272
ায়ক	-1273
প্র	-1274
▁পুৰুষ	-1275
াহৰ	-1276
▁যিকোনো	-1277
▁অনুভ	-1278
▁ব্যক্ত	-1279
আৰ	-1280
বেদ	-1281
াহত	-1282
▁খ্ৰীষ্ট	-1283
▁আক্ৰমণ	-1284
জে	-1285
▁চৰকাৰে	-1286
▁বিনিয়োগ	-1287
মাৰ	-1288
র্থ	-1289
্বত	-1290
▁পত	-1291
▁ক্ষেত্র	-1292
খল	-1293
▁ফে	-1294
ণ্টাৰ	-1295
▁কেন্দ্ৰীয়	-1296
দে	-1297
▁বিবাহ	-1298
এফ	-1299
াণ	-1300
ুৰা	-1301
▁অহা	-1302
▁জিলাৰ	-1303
▁উদাহৰণ	-1304
▁বস্তু	-1305
াপক	-1306
▁অষ্ট্ৰ	-1307
▁পূৰ্বে	-1308
▁বিশ্ববি	-1309
এম	-1310
▁তৃত	-1311
েচন	-1312
লিম্পিক	-1313
▁দ্ৰ	-1314
▁হাই	-1315
▁ওচৰত	-1316
▁পাঁচ	-1317
▁ব্যৱস্থ	-1318
ৱৰ্তী	-1319
স্বৰূপে	-1320
▁অঞ্চলত	-1321
▁মোদীয়ে	-1322
▁সংঘ	-1323
পতি	-1324
▁ফল	-1325
▁স্ন	-1326
▁ক্ৰী	-1327
▁নৃত্য	-1328
ৰলৈ	-1329
▁আঘাত	-1330
▁শৈ	-1331
বাৰৰ	-1332
▁অংশগ্ৰহণ	-1333
ণিজ	-1334
ুৱে	-1335
▁ব্ল	-1336
গীয়া	-1337
▁মন্ত	-1338
এল	-1339
ানত	-1340
▁এড	-1341
▁বছৰৰ	-1342
▁তেওঁলোকক	-1343
াতৃ	-1344
▁কম্প	-1345
কৃত	-1346
দাৰ	-1347
ালৈকে	-1348
▁সপ্ত	-1349
যুক্তি	-1350
▁মাত্ৰ	-1351
েও	-1352
▁।	-1353
▁পৰিকল্প	-1354
এন	-1355
িস্ত	-1356
▁বিল	-1357
▁১৯৪	-1358
ৰ্য	-1359
▁ভাগ	-1360
▁মোক	-1361
ময়	-1362
▁শক্তি	-1363
▁ইউৰ	-1364
▁বিশ্ববিদ্যালয়	-1365
▁অভিয	-1366
▁যেনে	-1367
ীতি	-1368
▁মুখ	-1369
▁অধীনত	-1370
▁সম্ভৱ	-1371
▁মাৰ্চ	-1372
ুৱাৰীত	-1373
▁বিশেষকৈ	-1374
াফ	-1375
ট্ট	-1376
▁সন্ত	-1377
▁শু	-1378
▁মুঠ	-1379
পুৰ	-1380
▁মানুহ	-1381
▁তৃতীয়	-1382
ঘল	-1383
ক্ষিত	-1384
▁সেয়ে	-1385
▁ঐ	-1386
িগ	-1387
▁আনু	-1388
▁দোক	-1389
▁জীৱন	-1390
িন্ধ	-1391
▁সাম্ৰাজ	-1392
▁স্বাস্থ্য	-1393
বিন	-1394
▁দৃ	-1395
▁যিবোৰ	-1396
ৃহ	-1397
▁তী	-1398
▁কাহ	-1399
যুত	-1400
▁আহিছিল	-1401
টন	-1402
েলৰ	-1403
▁বিশ্বৰ	-1404
▁প্ৰস্তুত	-1405
াসকলৰ	-1406
ুণ	-1407
বদ্ধ	-1408
▁আৰ্	-1409
▁সেন	-1410
▁বাণিজ	-1411
তু	-1412
ৰ্ট	-1413
▁পূব	-1414
চ্ছ	-1415
িনিধ	-1416
▁নিম	-1417
▁পাহ	-1418
▁লোকে	-1419
▁বিক্ৰী	-1420
কৰণ	-1421
▁উভ	-1422
▁পুত্ৰ	-1423
াসকলে	-1424
▁ৰাজন	-1425
ামী	-1426
ৰাপ	-1427
▁বজ	-1428
▁পায়	-1429
▁বৰ্ণ	-1430
▁টাই	-1431
▁হত্য	-1432
জনৰ	-1433
চন	-1434
▁পৰাম	-1435
▁লৈছিল	-1436
▁নাগ	-1437
▁কঠ	-1438
▁ডিজ	-1439
▁অনুভৱ	-1440
▁পো	-1441
▁যোৱাৰ	-1442
▁নামেৰে	-1443
ামৰ	-1444
▁পাছ	-1445
▁সেইবোৰ	-1446
▁ঘূ	-1447
শ্বিপ	-1448
▁পৃথক	-1449
দ্বাৰা	-1450
▁নিয়ম	-1451
▁আপোনাক	-1452
▁মতে	-1453
িশালী	-1454
▁সন্দ	-1455
▁ৰাজহ	-1456
▁পৃষ্ঠ	-1457
েইন	-1458
▁সমৰ্থ	-1459
▁চক	-1460
্ণ	-1461
▁প্ৰতিটো	-1462
র্য	-1463
ায়ী	-1464
▁অলিম্পিক	-1465
িতা	-1466
বাস	-1467
▁উপন	-1468
▁ড্ৰ	-1469
▁দুৰ্গ	-1470
▁১১	-1471
▁ভ্ৰমণ	-1472
▁আমেৰিকান	-1473
▁ব্যক্তিগত	-1474
প্ট	-1475
োজন	-1476
▁অল	-1477
▁এণ্ড	-1478
▁গাড়	-1479
▁প্ৰশিক্ষ	-1480
▁পল	-1481
▁মুক্তি	-1482
▁বঁটা	-1483
▁সন্মুখ	-1484
▁অনুমোদ	-1485
ব্ধ	-1486
▁আফ	-1487
▁ফিল	-1488
▁মহিলা	-1489
র্ত	-1490
মাত্ৰ	-1491
▁গৈছে	-1492
▁ধাৰণ	-1493
▁সেয়া	-1494
▁উপৰি	-1495
▁পদ্ধ	-1496
▁জনসংখ্য	-1497
্বী	-1498
▁ভূ	-1499
▁ভাব	-1500
▁অক্ট	-1501
▁নদীৰ	-1502
▁২০১৮	-1503
▁অভিনেত	-1504
▁অষ্ট্ৰেল	-1505
ভৰ	-1506
▁উৎপাদন	-1507
ভূম	-1508
কি	-1509
ৱৰ	-1510
▁জাৰ্	-1511
বাৰে	-1512
েক্ট	-1513
▁দ্য	-1514
ক্ৰান্ত	-1515
তঃ	-1516
িনৰ	-1517
▁পুৰণি	-1518
▁মানুহে	-1519
▁পৰম্পৰাগত	-1520
▁তৈ	-1521
ৰাধ	-1522
ন্নত	-1523
▁ডিচ	-1524
ীয়াকৈ	-1525
চী	-1526
▁ইউৰোপ	-1527
▁চিন্ত	-1528
গে	-1529
▁'	-1530
▁ভি	-1531
▁কেল	-1532
▁অক্টোব	-1533
▁পানী	-1534
েম্বৰত	-1535
▁নিযুত	-1536
াৰ্ট	-1537
▁উপলব্ধ	-1538
ান্স	-1539
ৃতিক	-1540
▁যাব	-1541
▁উদযাপন	-1542
ামূলক	-1543
▁এয়া	-1544
▁প্ৰদৰ্শন	-1545
▁সৰ্বাধিক	-1546
াকে	-1547
াদেশ	-1548
▁মিনিট	-1549
▁চুক্তি	-1550
▁সুবিধা	-1551
▁পৰামৰ্শ	-1552
▁পৰীক্ষা	-1553
▁লোকসকলৰ	-1554
িদ	-1555
িক্ত	-1556
াগৰ	-1557
▁স্বাধ	-1558
▁ৰখা	-1559
ষ্ঠান	-1560
▁অতিৰ	-1561
▁২০১৪	-1562
▁আৰম্ভণি	-1563
▁এপ	-1564
▁বী	-1565
▁ক্লাব	-1566
▁দ্বীপ	-1567
▁কম্পিউ	-1568
▁চৰকাৰৰ	-1569
▁তালিকা	-1570
▁শক্তিশালী	-1571
▁ভাই	-1572
▁সাহ	-1573
▁বাণিজ্য	-1574
▁১৪	-1575
▁মোগ	-1576
▁সংখ্যা	-1577
▁সেয়েহে	-1578
ষধ	-1579
▁এইখন	-1580
▁২০১৭	-1581
▁জৈন	-1582
▁পৰিচালনা	-1583
▁ডে	-1584
▁সংযোগ	-1585
োলা	-1586
▁বিত্ত	-1587
▁লক্ষণ	-1588
▁কৌ	-1589
সমূহক	-1590
▁পাক	-1591
▁পুন	-1592
▁বাছ	-1593
খ্যাত	-1594
▁প্ৰতিনিধ	-1595
যু	-1596
▁গণ্য	-1597
▁খৰ	-1598
▁নোহ	-1599
▁পঞ্জ	-1600
▁পৰিব	-1601
▁পৰৱৰ্তী	-1602
▁“	-1603
▁গৱে	-1604
▁চেম্পিয়নশ্বিপ	-1605
গ্র	-1606
াহে	-1607
▁যাক	-1608
▁ইতিহাস	-1609
▁আইন	-1610
েশ্যন	-1611
▁২০১৯	-1612
▁শাসন	-1613
▁ভৱ	-1614
▁নিয়ন্ত্ৰণ	-1615
দিষ্ট	-1616
▁পৰিয়াল	-1617
▁অতিৰিক্ত	-1618
০ৰ	-1619
জ্জ	-1620
াধ্য	-1621
▁নৱে	-1622
প্ৰিল	-1623
▁বাহি	-1624
▁আঁত	-1625
▁জুল	-1626
▁খেলা	-1627
▁বিদ্য	-1628
ক্ষেপ	-1629
▁১৩	-1630
▁উদ্দ	-1631
▁ৰাজ্যখনৰ	-1632
টক	-1633
দী	-1634
োৰা	-1635
▁নগৰ	-1636
▁আৰক্ষ	-1637
▁নেতৃত	-1638
▁কাৰ্য্য	-1639
▁-	-1640
িপি	-1641
▁পাব	-1642
▁বিস্ত	-1643
ালয়ৰ	-1644
▁যাতে	-1645
▁সঞ্চ	-1646
▁মৃত্যুৰ	-1647
শেষ	-1648
▁আশা	-1649
▁অত্য	-1650
▁ক্ষেত্রত	-1651
র্ণ	-1652
▁জু	-1653
▁উন্নত	-1654
▁উপৰিও	-1655
▁চুক্ত	-1656
▁এপ্ৰিল	-1657
লিক	-1658
▁দি	-1659
ীসকলৰ	-1660
সৰ	-1661
ছোঁ	-1662
ম্বৰ	-1663
▁দায়	-1664
▁ফালে	-1665
▁অঞ্চলৰ	-1666
▁জাৰ্মান	-1667
ৰাকী	-1668
▁ফুটবল	-1669
ষ্য	-1670
ৱান	-1671
▁বাত	-1672
খিনি	-1673
াত্ম	-1674
িকাত	-1675
ুনিক	-1676
▁বজাৰ	-1677
ন্ট	-1678
▁৩০	-1679
াবাদ	-1680
▁পাই	-1681
▁এতিয়াও	-1682
▁শী	-1683
▁পৰাস্ত	-1684
▁উন্নয়ন	-1685
িতাপ	-1686
▁আগষ্ট	-1687
▁চিত্ৰ	-1688
▁প্ৰমাণ	-1689
াউণ্ট	-1690
▁এক্স	-1691
▁বিভা	-1692
▁সম্ভাৱনা	-1693
▁টকা	-1694
িয়েল	-1695
ীসকলে	-1696
ইচ	-1697
্বল	-1698
▁হাজ	-1699
▁হাতত	-1700
▁প্ৰাচ	-1701
▁সামগ্ৰ	-1702
▁ঔষধ	-1703
▁শেষৰ	-1704
▁ব্যয়	-1705
▁ৰাজহুৱা	-1706
াৰ্ছ	-1707
▁দিবলৈ	-1708
▁নোৱাৰ	-1709
কূ	-1710
▁ত্ৰ	-1711
মু	-1712
াবী	-1713
▁ইল	-1714
▁দীঘল	-1715
▁পৰিশোধ	-1716
াইত	-1717
গৰাক	-1718
▁ইতি	-1719
▁যেন	-1720
▁ৰাজধান	-1721
▁ৰো	-1722
কালত	-1723
▁ৰজা	-1724
স্ত্ৰ	-1725
▁সন্মান	-1726
▁অনুমোদন	-1727
তাত	-1728
▁আনন্দ	-1729
▁নিৰ্ধ	-1730
▁প্ৰতিষ্ঠা	-1731
েৰী	-1732
▁কোটি	-1733
র্ম	-1734
▁কাষ	-1735
▁ক্ষতি	-1736
▁খেলিছিল	-1737
▁পৰ্যায়	-1738
▁বিদ্যালয়	-1739
াৎ	-1740
▁ছাৰ	-1741
▁ইমান	-1742
▁কৰিলে	-1743
▁সংগ্ৰহ	-1744
▁নিৰ্দিষ্ট	-1745
▁যৌ	-1746
▁জ্ঞ	-1747
▁মাই	-1748
▁বিবে	-1749
▁ষ্ট্ৰ	-1750
▁খেলৰ	-1751
▁তৈয়াৰ	-1752
দায়	-1753
▁মহিল	-1754
ীশ	-1755
▁সংৰ	-1756
ালোক	-1757
▁কুম	-1758
▁ডলাৰ	-1759
▁জনাজাত	-1760
▁প্রধান	-1761
টিত	-1762
▁তিনিটা	-1763
কো	-1764
ফ্ট	-1765
াৰীৰ	-1766
াসমূহৰ	-1767
▁সক্ষম	-1768
▁প্ৰয়োজনীয়	-1769
াবু	-1770
হাতে	-1771
▁বিজয়	-1772
▁আক্ৰান্ত	-1773
ডৰ	-1774
▁বিৰ	-1775
▁মানুহৰ	-1776
পৰা	-1777
বেদন	-1778
▁কেৰ	-1779
স্থান	-1780
▁কেনে	-1781
▁ভাষা	-1782
ক্ৰিয়	-1783
▁বেলেগ	-1784
▁এৰি	-1785
▁মেল	-1786
▁শিৱ	-1787
ন্দ্র	-1788
▁স্বাক্ষ	-1789
ুৰৰ	-1790
▁ৰু	-1791
ষ্টাৰ	-1792
▁২০১৩	-1793
▁বিত্তীয়	-1794
গড়	-1795
▁লয়	-1796
▁২০১০	-1797
▁টা	-1798
▁গঢ়ি	-1799
▁এফ	-1800
ত্তি	-1801
▁প্ৰৱেশ	-1802
ুৱাই	-1803
পু	-1804
ৱত	-1805
▁পাত	-1806
▁২০২০	-1807
▁আনহাতে	-1808
▁সমস্যা	-1809
ানা	-1810
েট্ৰ	-1811
▁পৰিকল্পনা	-1812
হি	-1813
ৰো	-1814
▁এট	-1815
▁পাৰিব	-1816
▁বৰ্ষ	-1817
▁মিটাৰ	-1818
ৰাৰ	-1819
▁কেতিয়াবা	-1820
জৰা	-1821
▁দ্ৰুত	-1822
▁হত্যা	-1823
▁ৰাষ্ট্ৰপতি	-1824
ইণ্ট	-1825
▁ফেব্ৰ	-1826
▁ক্ষম	-1827
▁সংস্থ	-1828
▁বৰ্ণনা	-1829
▁ৰাজধানী	-1830
ফে	-1831
েহত	-1832
িত্য	-1833
কালীন	-1834
মেণ্ট	-1835
▁মোগল	-1836
▁২০১৬	-1837
▁অনুমতি	-1838
▁নৱ	-1839
ৰীতে	-1840
কসকলে	-1841
▁প্ৰে	-1842
▁মহাৰ	-1843
▁বিপৰীতে	-1844
িচি	-1845
▁বিখ্যাত	-1846
মি	-1847
িটি	-1848
্মা	-1849
▁ঘৰ	-1850
▁পি	-1851
▁গৃহ	-1852
▁দখল	-1853
▁মেক	-1854
শিষ্ট	-1855
▁কেৰা	-1856
▁প্ৰণ	-1857
▁মুছল	-1858
▁চৰকাৰী	-1859
▁সংখ্যক	-1860
▁অধ্যক্ষ	-1861
▁শৃ	-1862
িয়নো	-1863
▁২০১১	-1864
▁সময়ছ	-1865
▁হয়তো	-1866
▁কিয়নো	-1867
▁নেট	-1868
▁সাত	-1869
▁শিশু	-1870
▁আধুনিক	-1871
▁কাহিনী	-1872
▁মাজেৰে	-1873
▁বেংক	-1874
▁২০১২	-1875
ংকৰ	-1876
ওৱা	-1877
▁গাড়ী	-1878
▁গুজৰা	-1879
▁বুজাবু	-1880
▁উদ্দেশ্য	-1881
▁ছেপ্ট	-1882
▁প্ৰদেশৰ	-1883
ালি	-1884
▁কন	-1885
লগীয়া	-1886
জিত	-1887
▁দৈ	-1888
▁২৫	-1889
▁বৈঠ	-1890
▁শীৰ্ষ	-1891
▁ন্যায়	-1892
▁পৰিস্থিত	-1893
িকৰ	-1894
▁কৰ্ণ	-1895
▁প্ৰাচীন	-1896
্বান	-1897
▁ৱেব	-1898
ঠা	-1899
লীৰ	-1900
▁সমাল	-1901
▁আপোনালোক	-1902
▁চী	-1903
▁পিত	-1904
▁মাৰা	-1905
▁নিৰ্ভৰ	-1906
ৰম	-1907
▁কৰে৷	-1908
▁সমাজ	-1909
▁২০০৮	-1910
▁দৃশ্য	-1911
▁নিম্ন	-1912
▁স্থাপ	-1913
▁স্থানত	-1914
▁পৰিয়ালৰ	-1915
▁আচ	-1916
াজিক	-1917
▁বেয়া	-1918
▁শিল্প	-1919
কসকলৰ	-1920
ক্ৰমণৰ	-1921
▁দৃষ্ট	-1922
েয়	-1923
ধা	-1924
ভি	-1925
▁চতু	-1926
মন	-1927
হত	-1928
তাংশ	-1929
বোৰক	-1930
▁চাল	-1931
▁ঠিক	-1932
▁শেহত	-1933
২০	-1934
▁সঠ	-1935
বাৰ্	-1936
▁বান	-1937
▁সিং	-1938
▁চহৰৰ	-1939
▁ক্ৰয়	-1940
▁সাক্ষ	-1941
্ষিক	-1942
▁দৰ্শ	-1943
▁কেবিন	-1944
▁মন্ত্ৰ	-1945
াইড	-1946
▁বৌ	-1947
▁মি	-1948
াণ্ড	-1949
িক্স	-1950
▁ৰোগৰ	-1951
▁মাধ্য	-1952
র্ক	-1953
ুলত	-1954
▁আঁচ	-1955
▁সাং	-1956
▁প্ৰশাস	-1957
▁পৰীক্ষ	-1958
▁ৰাজ্যিক	-1959
দ্র	-1960
ষ্ম	-1961
িনীৰ	-1962
▁জনস	-1963
▁টেল	-1964
▁গান্ধ	-1965
▁গ্ৰাহ	-1966
▁পৰিৱৰ্তন	-1967
▁প্ৰথমবাৰৰ	-1968
নাড	-1969
▁ভগ	-1970
▁বাজ	-1971
▁যুৱ	-1972
▁কৌশ	-1973
▁জিলা	-1974
▁ইংৰাজ	-1975
র্ব	-1976
▁বস	-1977
▁গতি	-1978
▁দুৰ	-1979
▁হাজাৰ	-1980
▁বিচাৰে	-1981
▁স্বাক্ষৰ	-1982
▁একেল	-1983
▁স্বাধীনত	-1984
ফলত	-1985
ব্ল	-1986
▁মাজৰ	-1987
▁১০০	-1988
াৰম্ভ	-1989
▁অভাৱ	-1990
▁দাবী	-1991
▁শতাংশ	-1992
▁প্ৰতিযোগিতা	-1993
বৃ	-1994
▁পঠ	-1995
▁সমাধ	-1996
▁মন্ত্ৰী	-1997
চক	-1998
▁চাৰ	-1999
▁ইণ্টাৰ	-2000
▁ধাৰণা	-2001
▁শ্ৰেষ্ঠ	-2002
িয়েট	-2003
▁সংঘটিত	-2004
▁ৰাজনৈতিক	-2005
▁কথ	-2006
▁গ্র	-2007
▁১৯৩	-2008
▁অব্য	-2009
▁দূৰত	-2010
▁নথ	-2011
ক্ষে	-2012
▁শীত	-2013
▁সফল	-2014
▁ৰাম	-2015
▁কানাড	-2016
▁উদাহৰণস্বৰূপে	-2017
▁বৌদ্ধ	-2018
তাক	-2019
ালা	-2020
োৱে	-2021
▁সৰ	-2022
▁দীৰ্ঘ	-2023
▁পানীৰ	-2024
▁ঋণ	-2025
▁ধ্ব	-2026
▁পিতৃ	-2027
▁নিৰ্বাচিত	-2028
ডেনৰ	-2029
াবাহ	-2030
▁তাৰি	-2031
▁জনায়	-2032
▁পিন্ধ	-2033
▁বেণ্ড	-2034
▁প্ৰথমটো	-2035
▁সংস্কৰণ	-2036
হ্ন	-2037
▁ৰঙ	-2038
▁খৰচ	-2039
▁পদক	-2040
▁ভয়	-2041
▁দেশত	-2042
▁সেইটো	-2043
▁দুয়োটা	-2044
হঁ	-2045
ল্ড	-2046
▁প্ৰস	-2047
▁যোগা	-2048
াৰম্ভিক	-2049
ীৰৰ	-2050
ৰিৰ	-2051
▁দিশত	-2052
▁হেৰু	-2053
▁সুযোগ	-2054
▁সহযোগিতা	-2055
তাশ	-2056
▁২০১৫	-2057
▁বিমানব	-2058
▁ক্ৰীড়া	-2059
▁পদ্ধতি	-2060
▁অফ	-2061
▁টে	-2062
োলাৰ	-2063
▁আলোচনা	-2064
▁যোগাযোগ	-2065
▁কৃষি	-2066
▁বন্দ	-2067
▁তাৰিখ	-2068
▁চিনাক্ত	-2069
▁ফ্ৰান্স	-2070
▁প্ৰতিৰোধ	-2071
▁সংক	-2072
▁শিক্ষা	-2073
▁নিৰ্দেশ	-2074
ম্ম	-2075
নৈতিক	-2076
▁খণ্ড	-2077
▁চৰকাৰ	-2078
▁কম্পিউটাৰ	-2079
▁য়	-2080
▁ধৰা	-2081
ুৱাৰী	-2082
▁সমৰ্থন	-2083
ুটি	-2084
ুতি	-2085
▁বন	-2086
পাল	-2087
▁বিনি	-2088
▁দোকান	-2089
িংগ	-2090
▁আগবা	-2091
▁বাকী	-2092
▁অভিযোগ	-2093
▁আনুষ্ঠান	-2094
▁তামিলনাড	-2095
▁খু	-2096
▁মৌ	-2097
▁তুলি	-2098
▁মুক্ত	-2099
▁শান্ত	-2100
▁বৰ্তমানৰ	-2101
পাশ	-2102
▁সচ	-2103
দ্বন্দ	-2104
▁যুদ্ধৰ	-2105
▁অব্যাহত	-2106
▁অৱস্থাত	-2107
শিত	-2108
▁জি	-2109
▁দিৱ	-2110
▁উপকূ	-2111
▁হতাশ	-2112
▁নিজকে	-2113
▁ভিডিঅ	-2114
▁একাউণ্ট	-2115
▁সুৰক্ষা	-2116
ুগ	-2117
পূব	-2118
ৰাম	-2119
▁সত	-2120
ষ্কাৰ	-2121
▁পূৰ্বৰ	-2122
▁সামাজিক	-2123
শিল	-2124
▁পঞ্চ	-2125
▁ৰক্ত	-2126
▁কাৰ্ড	-2127
াৰক	-2128
▁পৰিষ	-2129
▁ছুইডেনৰ	-2130
▁প্ৰকাৰৰ	-2131
্ফ	-2132
▁বত	-2133
িষ্য	-2134
▁ৰেক	-2135
▁বাহিৰ	-2136
▁মুছলমান	-2137
▁আজ	-2138
ৰুৱা	-2139
▁কিন	-2140
▁ঘটনা	-2141
▁প্ৰা	-2142
▁পাকিস্ত	-2143
▁তাই	-2144
পূৰ্ব	-2145
▁প্ৰয	-2146
ংসা	-2147
িছৰ	-2148
▁জে	-2149
নীয়	-2150
▁বান্ধ	-2151
▁গো	-2152
▁আদি	-2153
▁বৰষ	-2154
▁কৰোঁ	-2155
▁সন্মুখীন	-2156
▁সময়ছোৱাত	-2157
মেন	-2158
▁আন্দ	-2159
▁পাইছে	-2160
▁বাৰ্ষিক	-2161
ামান	-2162
▁নোৱ	-2163
▁তেনে	-2164
▁২৪	-2165
▁গ্ৰন্থ	-2166
▁প্ৰকৃত	-2167
খনক	-2168
বিদ	-2169
▁অথ	-2170
াত্মক	-2171
▁খেলত	-2172
▁বুলিও	-2173
▁আয়োজন	-2174
▁পদক্ষেপ	-2175
▁সন্দৰ্ভ	-2176
▁দায়িত্ব	-2177
▁খে	-2178
▁৫০	-2179
ৰ্তি	-2180
▁এলে	-2181
▁মাহৰ	-2182
▁একেলগে	-2183
▁হিন্দী	-2184
▁আহে	-2185
▁অৱশেষ	-2186
াপৰ	-2187
▁জিল	-2188
▁নৱেম্ব	-2189
▁স্থানান্তৰ	-2190
▁ঢ	-2191
▁সভ	-2192
াৰ্ড	-2193
▁জাত	-2194
▁জাহ	-2195
▁নিক	-2196
েম্বৰ	-2197
▁কঠিন	-2198
ালত	-2199
ালীৰ	-2200
▁মাট	-2201
▁আমেৰিকাৰ	-2202
▁আৰম্ভণিতে	-2203
য়নৰ	-2204
যোগী	-2205
▁লগা	-2206
▁ক্ষমতা	-2207
▁দুয়োখন	-2208
বী	-2209
িনে	-2210
ুৰী	-2211
▁ইট	-2212
লাইন	-2213
ৰ্ষণ	-2214
▁লাখ	-2215
▁অংশত	-2216
▁লণ্ড	-2217
▁ধ্বংস	-2218
▁দিল্লী	-2219
▁বিকশিত	-2220
তেই	-2221
▁গড়	-2222
▁পত্ন	-2223
▁চিহ্ন	-2224
▁একমাত্ৰ	-2225
▁নিৰ্ধাৰণ	-2226
ডেল	-2227
িবা	-2228
ুৰে	-2229
▁চা	-2230
▁ৱা	-2231
▁সহজ	-2232
▁বিবেচনা	-2233
▁ইণ্ডিয়া	-2234
▁জানুৱাৰীত	-2235
▁প্রধানমন্ত	-2236
▁দেখুৱ	-2237
▁সদায়	-2238
ৰূপে	-2239
▁বংশ	-2240
াদাৰী	-2241
▁আনকি	-2242
▁ওচৰৰ	-2243
▁২০০৭	-2244
াষ্ট্ৰ	-2245
▁অস্ত্ৰ	-2246
▁অৱশেষত	-2247
▁স্পষ্ট	-2248
ানি	-2249
াবি	-2250
েতু	-2251
▁পুল	-2252
▁কিমান	-2253
▁গৰাকী	-2254
▁ভাইৰা	-2255
▁সংস্থা	-2256
▁বৈশিষ্ট	-2257
সী	-2258
ল্ল	-2259
▁কং	-2260
▁লা	-2261
ান্দ	-2262
▁ৰাছ	-2263
▁অভিজ	-2264
▁গ্ৰীষ্ম	-2265
স্ব	-2266
চৰিত	-2267
▁নকৰে	-2268
▁বিকল্প	-2269
ংকা	-2270
▁ওল	-2271
▁মণ	-2272
▁তথাপ	-2273
▁এইবোৰ	-2274
▁যোগান	-2275
▁চৰিত্ৰত	-2276
▁ধৰ্মীয়	-2277
▁সাম্ৰাজ্য	-2278
ট্ৰ	-2279
▁অব	-2280
ব্লিউ	-2281
▁গাঁও	-2282
▁দেখি	-2283
▁মাৰ্ক	-2284
▁প্ৰেৰণ	-2285
▁উপলক্ষে	-2286
▁ষ	-2287
▁শাখ	-2288
▁তাইৰ	-2289
▁পৌৰস	-2290
গৰাকীয়ে	-2291
▁কেবিনেট	-2292
▁প্ৰতিষ্ঠান	-2293
▁প্ৰাৰম্ভিক	-2294
ইড	-2295
মানৰ	-2296
▁চলি	-2297
▁তাক	-2298
▁২০২১	-2299
▁প্ৰয়	-2300
▁ইউন	-2301
াৰ্জন	-2302
▁সংগঠ	-2303
▁সফলত	-2304
▁ভূমিকা	-2305
▁জনসাধাৰণ	-2306
পা	-2307
োভ	-2308
নাথ	-2309
বছৰ	-2310
▁নগ	-2311
▁কলে	-2312
▁বছৰত	-2313
▁মানৱ	-2314
▁কেতিয়াও	-2315
▁প্ৰস্তাৱ	-2316
ঙে	-2317
ঙ্ক	-2318
▁ধাৰ	-2319
▁নাথ	-2320
▁পৰিছে	-2321
▁তুলনাত	-2322
▁প্ৰজাত	-2323
▁কোষ	-2324
▁পান	-2325
শিল্প	-2326
▁ভাৰতে	-2327
▁পৰিচিত	-2328
ানু	-2329
িকেল	-2330
▁শৃং	-2331
▁সঠিক	-2332
▁নিৰাপ	-2333
▁ভৱিষ্য	-2334
▁শ্ৰেণী	-2335
▁আগবঢ়োৱা	-2336
▁প্ৰভাৱিত	-2337
▁সুৰক্ষিত	-2338
),	-2339
োছ	-2340
খণ্ড	-2341
জনিত	-2342
াভাৱ	-2343
▁কেন	-2344
▁কোৰ	-2345
▁২০০০	-2346
▁শ্বাহ	-2347
▁সম্ভৱতঃ	-2348
ুৎ	-2349
টিন	-2350
ণীৰ	-2351
ৰ্জ	-2352
পক্ষ	-2353
েশ্ব	-2354
▁লীগ	-2355
ত্ত্ব	-2356
▁নীতি	-2357
▁ৰাজক	-2358
▁অপৰাধ	-2359
▁আচৰিত	-2360
▁কাউণ্ট	-2361
▁ব্যাপক	-2362
▁সংগীতৰ	-2363
▁উপাৰ্জন	-2364
টে	-2365
দ্দ	-2366
ফিল	-2367
র্শ	-2368
▁আব	-2369
পিয়	-2370
▁তলত	-2371
▁পেন	-2372
▁উভতি	-2373
▁প্ৰৱ	-2374
▁পৰিণত	-2375
▁চৌ	-2376
▁তি	-2377
হেতু	-2378
ৰ্কৰ	-2379
▁উপনীত	-2380
▁ঐতিহাস	-2381
▁সন্দৰ্ভত	-2382
▁সামগ্ৰীৰ	-2383
▁সম্প্ৰদায়	-2384
ধৰণৰ	-2385
মধ্য	-2386
▁চেল	-2387
▁মোদীৰ	-2388
▁লোৱাৰ	-2389
▁যিহেতু	-2390
▁জনসংখ্যা	-2391
ত্থ	-2392
▁মিছ	-2393
▁ঠাইত	-2394
▁মাইল	-2395
▁উপায়	-2396
▁পাণ্ড	-2397
▁নোৱাৰে	-2398
▁মহিলাৰ	-2399
▁তদ	-2400
নীতি	-2401
▁তেত	-2402
▁দূৰ	-2403
▁আফ্ৰ	-2404
▁এবাৰ	-2405
▁পৰাই	-2406
▁২০০৯	-2407
চা	-2408
▁হা	-2409
ছাইট	-2410
▁একত্ৰ	-2411
▁ছবিখনৰ	-2412
▁ডিগ্ৰী	-2413
▁গভ	-2414
▁অথবা	-2415
▁শতিকাত	-2416
▁সন্মিল	-2417
▁মহাৰাষ্ট্ৰ	-2418
▁উল্লেখযোগ্য	-2419
▁নিষ	-2420
▁মহান	-2421
▁যাবলৈ	-2422
▁আধাৰিত	-2423
▁সামৰিক	-2424
▁বিনিময়	-2425
্ছে	-2426
▁বাল	-2427
▁সোন	-2428
▁কিবা	-2429
▁দশকৰ	-2430
▁অধ্যয়ন	-2431
▁ইভ	-2432
▁পক্ষ	-2433
▁বিদেশ	-2434
▁বৈঠকত	-2435
▁অধিকাৰ	-2436
▁লোকপিয়	-2437
চে	-2438
লাভ	-2439
াস্ক	-2440
▁বংগ	-2441
▁যুঁজ	-2442
▁কংগ্ৰ	-2443
▁মুম্ব	-2444
উট	-2445
িকেট	-2446
▁২০০৬	-2447
▁এয়াৰ	-2448
▁বিৰোধ	-2449
▁ৰাখিব	-2450
▁প্ৰক্ৰ	-2451
▁বিস্তৃত	-2452
ানক	-2453
▁পাঠ	-2454
ষ্ট্র	-2455
▁মাৰ্চত	-2456
পৰ	-2457
বংশ	-2458
▁সঁচ	-2459
▁সাজ	-2460
▁চাৰিও	-2461
▁জীৱনৰ	-2462
▁চাৰিটা	-2463
▁প্ৰতিদ্বন্দ	-2464
৫০	-2465
▁২১	-2466
▁পৰিৱৰ্তে	-2467
ৱেৰ	-2468
▁কোন	-2469
▁দুখ	-2470
▁পোৱাৰ	-2471
▁সৈন্য	-2472
)।	-2473
▁চূ	-2474
▁হিম	-2475
ণ্ডাৰ	-2476
▁এণ্ট	-2477
▁বাধা	-2478
▁ৰাতি	-2479
▁উৎসাহ	-2480
▁ৰাখিছিল	-2481
▁নকৰা	-2482
▁ভাষাৰ	-2483
▁যাত্ৰ	-2484
▁দলটোৱে	-2485
▁ৱেবছাইট	-2486
ংল	-2487
োত	-2488
ক্য	-2489
ৰুৰ	-2490
▁শৰ	-2491
▁দিৱস	-2492
▁নেটৱ	-2493
▁প্ৰথমে	-2494
▁একত্ৰিত	-2495
▁পৰিৱেশন	-2496
ুমু	-2497
্টি	-2498
▁অলপ	-2499
▁শ্ৰ	-2500
▁অগ্ৰ	-2501
▁দিনৰ	-2502
▁নিযুক্তি	-2503
হীন	-2504
▁অশ	-2505
্তিক	-2506
▁তেখ	-2507
▁দশকত	-2508
▁পৃথিৱ	-2509
▁ইতিমধ্য	-2510
ইন	-2511
ৰতে	-2512
চাৰী	-2513
▁ফোন	-2514
▁সেৱ	-2515
গ্ৰাম	-2516
▁ধৰ্মৰ	-2517
▁বিক্ৰ	-2518
▁জয়লাভ	-2519
▁এপ্ৰিলত	-2520
টিল	-2521
▁ভে	-2522
▁চাই	-2523
▁জ্য	-2524
▁কন্য	-2525
▁কৌশল	-2526
▁লিখা	-2527
্রীয়ে	-2528
কৰী	-2529
গাঁ	-2530
িবি	-2531
্রম	-2532
ৰ্দ	-2533
▁টু	-2534
▁সো	-2535
▁কৃত	-2536
▁ছোৱ	-2537
▁সোম	-2538
▁উদ্ভ	-2539
▁বাছনি	-2540
▁যোগদান	-2541
▁প্ৰাৰ্থ	-2542
▁ইজ	-2543
বৃহৎ	-2544
িজনৰ	-2545
▁মনোন	-2546
▁বাৰ্ত	-2547
▁ভুল	-2548
▁লাই	-2549
▁উদ্ব	-2550
▁সংযুক্ত	-2551
গান	-2552
▁টো	-2553
জুৰি	-2554
▁ধৰণ	-2555
▁বাদ	-2556
▁শিখ	-2557
▁ট্ৰে	-2558
▁বায়	-2559
▁নেতৃত্ব	-2560
▁পৰিমাণৰ	-2561
শী	-2562
টিং	-2563
শাস	-2564
িশ্ৰ	-2565
▁কাউন্ট	-2566
▁সময়তে	-2567
▁অনুষ্ঠানত	-2568
▁প্ৰতিনিধিত্ব	-2569
চিন	-2570
েকি	-2571
▁মত	-2572
াষ্ট	-2573
▁মাছ	-2574
▁১৯২	-2575
োৱাকৈ	-2576
▁চেণ্ট	-2577
▁পৰিবহণ	-2578
.-	-2579
েলত	-2580
▁শত	-2581
▁২২	-2582
ৃতিৰ	-2583
▁বেট	-2584
িকাংশ	-2585
▁ইষ্ট	-2586
▁উদ্ধ	-2587
▁ৰচনা	-2588
▁জনোৱা	-2589
▁প্ৰাক	-2590
▁কৰ্ণাট	-2591
▁প্ৰচাৰ	-2592
▁ভালদৰে	-2593
▁পৰিমাণে	-2594
পে	-2595
১৯	-2596
লতঃ	-2597
োলে	-2598
▁২৩	-2599
▁ৰং	-2600
েত্ৰ	-2601
▁গঠিত	-2602
▁উপত্য	-2603
▁বাধ্য	-2604
▁মুদ্ৰ	-2605
▁তথাপিও	-2606
▁অধিকাংশ	-2607
োড	-2608
বাম	-2609
হিত	-2610
ৱিক	-2611
▁হাল	-2612
স্কাৰ	-2613
▁উত্থ	-2614
▁সিহঁ	-2615
▁প্রথম	-2616
▁বৈশিষ্ট্য	-2617
▁ঝ	-2618
ামিন	-2619
▁জুন	-2620
▁ফেড	-2621
▁মূলতঃ	-2622
▁অৰ্থনৈতিক	-2623
▁লি	-2624
▁অবি	-2625
▁আগত	-2626
▁দলে	-2627
▁বৃহ	-2628
▁জুনত	-2629
▁বিপদ	-2630
▁ঘৰুৱা	-2631
▁পাহাৰ	-2632
▁প্ৰেম	-2633
▁চতুৰ্থ	-2634
▁বক্স	-2635
▁বিয়	-2636
▁ভূমি	-2637
▁বিভাগ	-2638
▁পদাৰ্থ	-2639
▁বিজ্ঞান	-2640
▁লোকসকলে	-2641
▁সম্প্ৰস	-2642
▁নিৰ্মাণৰ	-2643
▁পৰিচালিত	-2644
েদ	-2645
পাৰ	-2646
শ্ম	-2647
াব্দ	-2648
ীকৰণ	-2649
▁গুল	-2650
▁লেখ	-2651
▁হেল	-2652
▁ধুমু	-2653
▁২০২২	-2654
▁ব্যৱহ	-2655
▁অভিযান	-2656
▁গুৰুতৰ	-2657
▁ৰাজবংশ	-2658
▁দিল্লীৰ	-2659
▁নৱেম্বৰত	-2660
▁সাম্ৰাজ্যৰ	-2661
গু	-2662
▁কিং	-2663
▁ফলা	-2664
▁তেলে	-2665
▁সমস্যাৰ	-2666
গণ	-2667
▁গী	-2668
▁ফুল	-2669
ভুক্ত	-2670
াত্ৰী	-2671
▁উচিত	-2672
▁মণিপ	-2673
▁হস্ত	-2674
▁কাপোৰ	-2675
▁কাৰণে	-2676
▁অৱস্থা	-2677
▁চিন্তা	-2678
▁সমাপ্ত	-2679
োজনা	-2680
াউণ্ড	-2681
পশ্চিম	-2682
▁গোটেই	-2683
পত	-2684
ৰ্ধ	-2685
▁৪০	-2686
ুষ্ট	-2687
▁ঘাই	-2688
▁বিধ	-2689
▁সোঁ	-2690
▁পইণ্ট	-2691
▁স্বীক	-2692
▁হেৰুৱ	-2693
▁অভিজ্ঞ	-2694
▁লিখিছিল	-2695
▁বিমানবন্দৰ	-2696
নক	-2697
্ঠ	-2698
▁বেছ	-2699
▁চুলত	-2700
▁মাতৃ	-2701
▁বাবেও	-2702
▁আকৰ্ষণ	-2703
▁প্ৰাপ্ত	-2704
চল	-2705
ভূ	-2706
ামত	-2707
▁আস	-2708
▁কৈ	-2709
▁তৰ	-2710
াৰ্ণ	-2711
▁জেন	-2712
▁নেপ	-2713
▁হাঁ	-2714
ালয়ত	-2715
▁দুখন	-2716
▁লোকক	-2717
▁অভিনেতা	-2718
▁অক্টোবৰত	-2719
▁বিচাৰিছিল	-2720
হাই	-2721
বায়	-2722
▁চাক	-2723
▁অংশৰ	-2724
▁কামৰ	-2725
▁দুৰ্	-2726
▁হ্ৰদ	-2727
▁ৰূপত	-2728
াভাৱিক	-2729
▁কৃষ্ণ	-2730
▁ভাষাত	-2731
▁সৰ্ববৃহৎ	-2732
▁সম্পূৰ্ণৰূপে	-2733
গো	-2734
▁ডল	-2735
▁গ্ল	-2736
▁হকী	-2737
চিত্ৰ	-2738
▁অন্তিম	-2739
এইচ	-2740
াকা	-2741
ুদ্ৰ	-2742
মান্ত	-2743
▁ঘূৰি	-2744
▁দেখু	-2745
▁ৰেকৰ্ড	-2746
▁প্ৰশংসা	-2747
▁প্ৰশিক্ষণ	-2748
▁সম্পৰ্কীয়	-2749
ছা	-2750
▁বাহিৰে	-2751
▁জনাইছিল	-2752
▁ফেব্ৰুৱাৰীত	-2753
▁খন	-2754
িটেল	-2755
▁কাক	-2756
▁মনো	-2757
▁কিতাপ	-2758
▁ঘূৰাই	-2759
▁বন্ধু	-2760
▁বিদ্ৰ	-2761
▁ডিচেম্বৰত	-2762
ৰক	-2763
িকৈ	-2764
▁গছ	-2765
াখ্য	-2766
াগৰৰ	-2767
▁জটিল	-2768
▁দিছে	-2769
▁নৌ	-2770
লীয়া	-2771
▁অর্থ	-2772
▁ছিজন	-2773
▁কৰিছো	-2774
▁সংশোধ	-2775
▁সাংস্ক	-2776
▁বুজাবুজি	-2777
▁২৬	-2778
শ্যন	-2779
▁পঢ়	-2780
াসকলক	-2781
ীসকলক	-2782
▁২০০১	-2783
▁আন্দোল	-2784
▁মাইক্ৰ	-2785
▁ইতিমধ্যে	-2786
হু	-2787
▁অসু	-2788
▁মাদ	-2789
▁মিড	-2790
▁ৰঙৰ	-2791
▁অহাৰ	-2792
▁কিয়	-2793
▁আহ্বান	-2794
▁উদ্যান	-2795
▁গৱেষণা	-2796
মহ	-2797
▁ঘৰৰ	-2798
▁সাৰ	-2799
▁শাস্ত	-2800
▁অনুসৰণ	-2801
▁আগষ্টত	-2802
▁জুলাইত	-2803
িলৈ	-2804
▁সজ	-2805
থমিক	-2806
বন্ধ	-2807
্যাস	-2808
▁টিক	-2809
▁অনুৰ	-2810
▁ৰক্ষা	-2811
▁ঐতিহাসিক	-2812
▁চিকিৎসাৰ	-2813
খনো	-2814
াতা	-2815
▁তু	-2816
কালৰ	-2817
▁ছিক	-2818
▁নাৰ	-2819
▁মিউ	-2820
▁সংস	-2821
দ্বীপ	-2822
▁কৰ্ত	-2823
▁চহৰত	-2824
▁যক্ষ	-2825
▁অৰ্জন	-2826
▁ঘাইপথ	-2827
▁টেক্স	-2828
▁সেৱাৰ	-2829
▁জাপানৰ	-2830
▁কেন্দ্র	-2831
ইউ	-2832
থনি	-2833
প্ল	-2834
বাহী	-2835
েইনৰ	-2836
▁লিপ	-2837
▁কৰ্ক	-2838
▁দীঘলীয়া	-2839
▁নিৰাপত্ত	-2840
জত	-2841
ালক	-2842
বাচক	-2843
▁দেউ	-2844
▁উৎসৱৰ	-2845
▁গুজৰাট	-2846
▁কাৰ্যসূ	-2847
▁স্বাধীনতা	-2848
ৰাক	-2849
দৰ্শ	-2850
ায়ে	-2851
▁ইছল	-2852
▁অন্ধ	-2853
▁জনাই	-2854
▁২০০৫	-2855
▁বিয়া	-2856
▁অনুমান	-2857
▁নাগৰিক	-2858
▁সাক্ষাৎ	-2859
▁ঈ	-2860
িলৰ	-2861
বাদৰ	-2862
▁কাঠ	-2863
▁ছিন	-2864
▁সুখ	-2865
যুদ্ধ	-2866
▁ফ্ৰে	-2867
েষ্টাৰ	-2868
▁যোগ্য	-2869
▁ইণ্টাৰন	-2870
▁বাণিজ্যিক	-2871
▁সাংস্কৃতিক	-2872
তকৈও	-2873
▁শস্য	-2874
▁উইণ্ড	-2875
▁খেলখন	-2876
▁কোম্পানীৰ	-2877
গম	-2878
▁আঠ	-2879
▁দহ	-2880
▁দৰ	-2881
ৃদ্ধ	-2882
্বীকাৰ	-2883
▁কৰিব৷	-2884
▁নম্বৰ	-2885
▁উদ্ভাৱ	-2886
▁জনাইছে	-2887
▁বিদ্যুৎ	-2888
▁ব্যৱস্থাৰ	-2889
ুচ	-2890
কৈও	-2891
▁চেন	-2892
▁বাগ	-2893
▁শিক	-2894
াক্তন	-2895
▁শেষত	-2896
▁জানিব	-2897
▁বাতৰি	-2898
▁সক্ৰিয়	-2899
▁ব্যৱহাৰৰ	-2900
▁সহযোগিতাৰ	-2901
েইম	-2902
ৰিব	-2903
▁ইম	-2904
▁শুক	-2905
▁অভিল	-2906
▁অস্থ	-2907
▁আৰোপ	-2908
▁নেকি	-2909
▁বছৰে	-2910
▁ভাতৃ	-2911
▁২০০৪	-2912
▁ইনষ্ট	-2913
▁ফিল্ম	-2914
▁বিচৰা	-2915
▁সন্ধান	-2916
▁অস্বীকাৰ	-2917
▁উপাদ	-2918
▁পুৰুষৰ	-2919
েষ্ঠ	-2920
▁চাব	-2921
▁অভিলেখ	-2922
▁সমালোচ	-2923
▁কুক	-2924
▁ঘৰত	-2925
▁পেট	-2926
▁সঁজ	-2927
▁নিউয়	-2928
▁ক্ৰিকেট	-2929
▁চিহ্নিত	-2930
েলে	-2931
ভূমি	-2932
মণ্ড	-2933
▁ভিট	-2934
েয়াৰ	-2935
▁ফাইন	-2936
েৰিয়াৰ	-2937
▁ছেপ্টেম্বৰত	-2938
নাই	-2939
্টৰ	-2940
▁কেইট	-2941
▁মহাক	-2942
িষ্টেম	-2943
▁টেলিভ	-2944
▁সৰ্বো	-2945
▁মাধ্যম	-2946
▁ষ্টেচন	-2947
▁কৰ্মচাৰী	-2948
গ্ন	-2949
সিক	-2950
দণ্ড	-2951
াপতি	-2952
▁একক	-2953
▁গভীৰ	-2954
▁ইংৰাজী	-2955
▁বাহিৰত	-2956
▁সমৃদ্ধ	-2957
▁প্ৰথমখন	-2958
▁শেহতীয়া	-2959
▁কাৰ্যালয়	-2960
ঙি	-2961
▁ৰজ	-2962
▁আহি	-2963
▁চিল	-2964
▁পেচ	-2965
▁ৰাই	-2966
▁পূৰণ	-2967
▁আবদ্ধ	-2968
▁স্নায়	-2969
▁কলা	-2970
▁চাহ	-2971
▁মনত	-2972
োৱালৈকে	-2973
▁মন্দিৰৰ	-2974
▁প্ৰাথমিক	-2975
ট্য	-2976
▁কঠোৰ	-2977
▁উপহাৰ	-2978
▁কৰ্কট	-2979
▁আৰম্ভণ	-2980
▁নোহোৱা	-2981
▁বিকাশৰ	-2982
▁যুদ্ধত	-2983
▁অষ্ট্ৰেলিয়াৰ	-2984
▁:	-2985
শ্ৰ	-2986
েলা	-2987
▁গম	-2988
▁জ্ব	-2989
▁শুভ	-2990
ন্ত্র	-2991
▁ইউনি	-2992
▁ওপৰৰ	-2993
▁ডিজাইন	-2994
▁ইংলেণ্ডৰ	-2995
▁কাউন্টিৰ	-2996
▁কেইটামান	-2997
▁কেইবাখনো	-2998
▁লোকপিয়ল	-2999
১২	-3000
ুপাৰ	-3001
▁গোল	-3002
▁জিন	-3003
▁দুই	-3004
াইকেল	-3005
ৰ্য্য	-3006
▁ফলস্বৰূপে	-3007
"।	-3008
তী	-3009
ংকাৰ	-3010
িত্র	-3011
▁আৱি	-3012
▁তেল	-3013
ৰ্ডাৰ	-3014
▁তীব্ৰ	-3015
▁শিলাল	-3016
▁অনুৰোধ	-3017
▁দেখুওৱা	-3018
▁বছৰীয়া	-3019
▁তাপ	-3020
▁সীম	-3021
▁সংবাদ	-3022
▁সামৰি	-3023
▁স্কুল	-3024
▁সন্তান	-3025
্নত	-3026
▁২৭	-3027
েচ্ছ	-3028
্টাৰ	-3029
▁ওলাই	-3030
▁বিষয়া	-3031
▁উৎপত্তি	-3032
▁পৰিচালক	-3033
▁সংক্ৰমণ	-3034
▁নিৰ্বাচনত	-3035
িভি	-3036
▁ছব	-3037
▁২৮	-3038
লীয়	-3039
্যাগ	-3040
্যান	-3041
▁অনা	-3042
নিৰ্ব	-3043
▁এলেকা	-3044
▁তেখেত	-3045
▁বিষ্ণ	-3046
▁প্ৰত্যাহ	-3047
বাত	-3048
ৰাল	-3049
▁খং	-3050
▁বহন	-3051
▁যৌন	-3052
▁হোল	-3053
ীয়াই	-3054
▁অফিচ	-3055
▁বৰ্গ	-3056
▁জনজাত	-3057
▁ইভেণ্ট	-3058
▁নিৰ্মিত	-3059
▁বৃদ্ধিৰ	-3060
▁লাগিছিল	-3061
▁লোকসকলক	-3062
▁সংৰক্ষণ	-3063
▁প্ৰাক্তন	-3064
েইল	-3065
▁জো	-3066
▁অধি	-3067
▁মাত	-3068
নীতিৰ	-3069
▁সাগৰ	-3070
▁টেষ্ট	-3071
▁অনুশীল	-3072
▁বিভাগৰ	-3073
▁হোৱাটো	-3074
▁ইউৰোপীয়	-3075
ছন	-3076
▁,	-3077
▁নৰ	-3078
▁অংশী	-3079
▁ষ্টেড	-3080
▁পৃষ্ঠপ	-3081
▁ভিত্তি	-3082
▁ব্যৱহৃত	-3083
▁চাৰিওফালে	-3084
।"	-3085
াইভ	-3086
িৰত	-3087
্জন	-3088
▁গুণ	-3089
▁চোল	-3090
▁পোন	-3091
ক্ষাৰ	-3092
▁ঘণ্ট	-3093
▁কেলিফ	-3094
▁জাহাজ	-3095
▁তীৰ্থ	-3096
▁বিভক্ত	-3097
িয়ালৈকে	-3098
▁চলচ্চিত্ৰখনৰ	-3099
কেই	-3100
াংশ	-3101
াম্য	-3102
▁আৱে	-3103
ায়াৰ	-3104
▁শৃংখ	-3105
▁সমান	-3106
▁ছবিখন	-3107
▁পাৰ্ক	-3108
▁জ্ঞাপন	-3109
▁ছিষ্টেম	-3110
▁সম্পর্ক	-3111
▁ৰাখিবলৈ	-3112
ামা	-3113
ৰাণ	-3114
▁টি	-3115
▁বনা	-3116
পূর্ণ	-3117
▁গুহা	-3118
▁প্ৰতিক	-3119
▁নেটৱৰ্ক	-3120
র্ভ	-3121
িকে	-3122
▁ডেভ	-3123
বাৰ্গ	-3124
িয়াছ	-3125
▁চকুৰ	-3126
▁অনলাইন	-3127
▁চন্দ্ৰ	-3128
▁বিশ্ববিদ্যালয়ৰ	-3129
দা	-3130
ৈত	-3131
িৰি	-3132
োগৰ	-3133
োষক	-3134
▁হৃ	-3135
ুপ্ত	-3136
▁আঞ্চ	-3137
▁প্লে	-3138
▁বিশ্বক	-3139
েলি	-3140
▁বো	-3141
দ্ধা	-3142
ীকাৰ	-3143
▁কঢ়	-3144
▁মেন	-3145
▁প্রশ	-3146
▁সম্ব	-3147
▁হালধ	-3148
গ্ৰস্ত	-3149
▁তোলাৰ	-3150
▁উপযুক্ত	-3151
▁প্ৰাকৃতিক	-3152
▁প্ৰতিযোগিতাত	-3153
ঠি	-3154
জিৰ	-3155
াদু	-3156
গণিত	-3157
▁চাপ	-3158
▁দুজন	-3159
▁শাসক	-3160
▁যিমান	-3161
▁প্ৰত্যেক	-3162
▁বিশেষভাৱে	-3163
েজ	-3164
দিনৰ	-3165
াৰ্জ	-3166
্ৰাট	-3167
িয়াক	-3168
▁এটাৰ	-3169
▁বাংল	-3170
▁উঠিছিল	-3171
▁ষ্টেডিয়াম	-3172
পট	-3173
াজী	-3174
ায়ণ	-3175
▁মাচ	-3176
▁আয়ো	-3177
▁ৰোগত	-3178
▁এলবাম	-3179
▁এছিয়ান	-3180
▁কৰিবলগীয়া	-3181
গতি	-3182
ঞ্জন	-3183
েটিক	-3184
▁গান	-3185
▁গোপ	-3186
▁তলৰ	-3187
▁ভোট	-3188
▁মঞ্চ	-3189
প্ৰদেশ	-3190
▁দুৰ্ঘ	-3191
▁পাঁচটা	-3192
▁ভিতৰতে	-3193
▁সঁচাকৈ	-3194
▁সঞ্চয়	-3195
িমা	-3196
পাশত	-3197
▁ডেন	-3198
বিধান	-3199
েকুৱা	-3200
▁এবিধ	-3201
▁ছফ্ট	-3202
▁পত্নী	-3203
▁ভিন্ন	-3204
▁মাৰাঠ	-3205
▁কেনেকৈ	-3206
▁পৰাজিত	-3207
▁উত্তৰাধ	-3208
▁পৰিগণিত	-3209
▁সীমান্ত	-3210
▁জনসংখ্যাৰ	-3211
▁প্ৰযুক্তি	-3212
▁বিবাহপাশত	-3213
গজ	-3214
স্ফ	-3215
▁নিশ	-3216
▁ইঞ্জ	-3217
▁চিনে	-3218
প্ৰকাশ	-3219
নিৰ্বাহ	-3220
▁আক্ৰমণৰ	-3221
▁আঞ্চলিক	-3222
▁টেলিভিছ	-3223
▁সেনাবাহ	-3224
▁জানুৱাৰী	-3225
থি	-3226
ুজ	-3227
ডাৰ	-3228
ড্ৰ	-3229
াপনৰ	-3230
িদ্ধ	-3231
▁খান	-3232
▁গোচ	-3233
▁বৰষুণ	-3234
▁উদ্ধাৰ	-3235
▁শক্তিৰ	-3236
▁সম্ৰাট	-3237
▁আগবাঢ়ি	-3238
▁শাস্ত্ৰ	-3239
▁আন্তঃগাঁ	-3240
▁যুক্তৰাষ্ট্ৰত	-3241
োকে	-3242
্ভা	-3243
াম্প	-3244
ৱর্ত	-3245
▁খোজ	-3246
▁নিৰ	-3247
▁পূজা	-3248
▁ছাৰ্ভ	-3249
▁দিনটো	-3250
ক্ষেত্ৰ	-3251
▁ক্ৰীড়	-3252
▁বিজয়ী	-3253
▁মিনিটৰ	-3254
▁সুন্দৰ	-3255
▁স্বীকৃতি	-3256
▁ৰাজ্যখনত	-3257
▁স্থানান্তৰিত	-3258
ৱৰণ	-3259
▁কণ	-3260
▁নী	-3261
পত্ৰ	-3262
্তিত	-3263
▁নায	-3264
▁ভংগ	-3265
ৰাজ্য	-3266
▁চৰাই	-3267
▁দিনা	-3268
ড়ান্ত	-3269
ানীয়ে	-3270
▁খণ্ডৰ	-3271
▁বিশাল	-3272
▁নাথাকে	-3273
▁বনাঞ্চ	-3274
▁সপ্তাহ	-3275
▁এছিয়াৰ	-3276
▁ডিজিটেল	-3277
▁সংস্কৃত	-3278
▁ফ্ৰান্সৰ	-3279
▁প্ৰতিদ্বন্দ্ব	-3280
বাই	-3281
▁হল	-3282
▁২৯	-3283
▁৩১	-3284
▁অৰণ	-3285
▁ছাল	-3286
▁ডেল	-3287
▁অষ্ট	-3288
▁ইচ্ছ	-3289
▁ক্ৰে	-3290
▁খোৱা	-3291
▁টাইম	-3292
▁সমিত	-3293
লেণ্ডত	-3294
▁তেনেহ	-3295
▁ত্যাগ	-3296
▁নামটো	-3297
▁বিধান	-3298
▁আগবঢ়ায়	-3299
▁বাংলাদেশ	-3300
▁অধ্যক্ষতাত	-3301
জী	-3302
িনা	-3303
েটত	-3304
জন্ম	-3305
বস্ত	-3306
▁ডাক	-3307
▁নিদ	-3308
▁চাওক	-3309
▁চীনা	-3310
▁যুগৰ	-3311
▁একেটা	-3312
▁নিৰ্ণ	-3313
▁পাৰ্ট	-3314
▁যাত্ৰা	-3315
▁ব্যাখ্য	-3316
▁জাৰ্মানীৰ	-3317
ুৱেল	-3318
▁ক্র	-3319
▁ভৰি	-3320
▁ইছলাম	-3321
▁মেক্স	-3322
▁শাৰীৰ	-3323
ঙত	-3324
১৮	-3325
িংস	-3326
েপ্ত	-3327
্বিক	-3328
▁গঢ়	-3329
▁দাস	-3330
▁বুক	-3331
নিষ্ঠ	-3332
▁কমিউ	-3333
▁চেন্ন	-3334
▁ফলাফল	-3335
▁প্রকল্প	-3336
▁পৰ্যন্ত	-3337
ফৰ	-3338
শয়	-3339
ৰ্প	-3340
▁৬০	-3341
▁উইল	-3342
▁এটি	-3343
ফিল্ড	-3344
▁শৈলী	-3345
▁পাৰ্থ	-3346
▁উদ্ভিদ	-3347
▁একাধিক	-3348
▁চিনেমা	-3349
▁কেৰালাৰ	-3350
▁ব্যক্তিৰ	-3351
▁খ্ৰীষ্টপূৰ্ব	-3352
নু	-3353
িঅ	-3354
াংগ	-3355
বাদী	-3356
▁চুব	-3357
▁শ্র	-3358
▁আধাৰ	-3359
▁আলোচ	-3360
▁তাইক	-3361
▁নাটক	-3362
▁পেৰি	-3363
▁ৰন্ধ	-3364
▁আগ্ৰহ	-3365
▁খিতাপ	-3366
▁সিন্ধ	-3367
▁ৰোমান	-3368
▁খ্ৰীষ্টান	-3369
▁প্ৰক্ৰিয়া	-3370
ঘৰ	-3371
▁মজ	-3372
তিকে	-3373
▁সীমা	-3374
▁উপাদান	-3375
▁চহৰখনৰ	-3376
▁চূড়ান্ত	-3377
▁সংক্ৰমণৰ	-3378
▁ৰূপান্তৰ	-3379
▁শিক্ষাৰ্থ	-3380
াব্য	-3381
ালীন	-3382
▁দবা	-3383
শ্বাস	-3384
▁বিগত	-3385
▁ওচৰলৈ	-3386
▁চাবলৈ	-3387
▁স্থায়ী	-3388
▁প্ৰকল্পৰ	-3389
▁বিশেষজ্ঞ	-3390
▁সৰ্বোচ্চ	-3391
খা	-3392
নাম	-3393
বলৰ	-3394
ফালৰ	-3395
▁জমা	-3396
▁অৱসৰ	-3397
▁কমেও	-3398
▁জৰ্জ	-3399
▁নিউজ	-3400
▁মডেল	-3401
▁১৯৯৯	-3402
তন্ত্ৰ	-3403
তিক্ৰম	-3404
▁আঁতৰি	-3405
▁জলপ্ৰ	-3406
▁জিলাত	-3407
▁পূৰ্ণ	-3408
বলগীয়া	-3409
▁প্ৰকাৰ	-3410
▁ৰাজ্যত	-3411
বহ	-3412
র্গ	-3413
র্দ	-3414
াদশ	-3415
▁আনি	-3416
▁দৰি	-3417
্যন্ত	-3418
▁খেলপথ	-3419
▁গৱেষণ	-3420
▁ৱেষ্ট	-3421
▁অক্টোবৰ	-3422
▁অঞ্চলটো	-3423
▁খেলুৱৈৰ	-3424
▁উন্নয়নৰ	-3425
▁কেলিফৰ্ণ	-3426
▁আপোনালোকে	-3427
▁ইণ্ডিয়ান	-3428
▁ব্যৱসায়িক	-3429
ছক	-3430
টনা	-3431
াউন	-3432
▁এইচ	-3433
▁কুই	-3434
▁ফৰা	-3435
▁লিম	-3436
▁ৰঙা	-3437
▁ৰান	-3438
▁আৰ্থ	-3439
▁তোলে	-3440
▁ভাষণ	-3441
▁ব্ৰাজ	-3442
▁আঁতৰাই	-3443
▁প্ৰযোজ	-3444
▁সকলোবোৰ	-3445
▁স্বীকাৰ	-3446
▁অঞ্চলটোৰ	-3447
▁সম্পৰ্কিত	-3448
মী	-3449
ূহ	-3450
িঙৰ	-3451
োধন	-3452
▁নং	-3453
▁যা	-3454
উণ্ড	-3455
▁তিন	-3456
▁মেচ	-3457
▁ৱিক	-3458
ৱাৰ্ড	-3459
▁বানপ	-3460
▁সেনা	-3461
▁স্তৰ	-3462
▁২০০৩	-3463
েৰিয়া	-3464
▁কন্যা	-3465
▁বিহাৰ	-3466
▁শিশুৰ	-3467
▁গ্ৰাহক	-3468
▁সাহিত্য	-3469
্ৰিক	-3470
ৰেৰে	-3471
▁খবৰ	-3472
▁গেছ	-3473
ন্ধান	-3474
ৃত্তি	-3475
▁অস্ব	-3476
▁ইলিন	-3477
▁ঐতিহ	-3478
▁খেতি	-3479
▁লাহে	-3480
▁কাশ্ম	-3481
▁গ্ৰুপ	-3482
▁বাহিন	-3483
▁স্থিত	-3484
▁ডব্লিউ	-3485
▁স্বচ্ছ	-3486
▁জ্যেষ্ঠ	-3487
▁ভিত্তিত	-3488
উজ	-3489
িথ	-3490
নিম	-3491
ভাষ	-3492
ভোগ	-3493
র্ট	-3494
ঞ্জৰ	-3495
▁চকু	-3496
▁পিট	-3497
▁ভেক	-3498
▁ৰেড	-3499
খণ্ডৰ	-3500
▁চক্ৰ	-3501
▁দৰেই	-3502
▁পর্য	-3503
▁সুস্থ	-3504
▁এইটোৱে	-3505
▁কৰিছে৷	-3506
▁ভ্ৰমণৰ	-3507
▁তুলিছিল	-3508
▁পৰ্যায়ৰ	-3509
▁হালধীয়া	-3510
▁আনুষ্ঠানিক	-3511
১০	-3512
ংগা	-3513
▁ভী	-3514
ত্তম	-3515
ুপৰি	-3516
্লেষ	-3517
▁অপে	-3518
▁নাল	-3519
▁বাই	-3520
▁উভয়	-3521
▁তোলা	-3522
▁পৌৰন	-3523
▁মেনে	-3524
▁ৰাখি	-3525
▁মাচুল	-3526
দিনীয়া	-3527
প্ৰাপ্ত	-3528
ান্তীয়	-3529
▁কেৰিয়াৰ	-3530
▁লক্ষ্যৰে	-3531
▁অনুসন্ধান	-3532
▁পৰ্য্যায়	-3533
টত	-3534
িৰা	-3535
▁সঘ	-3536
▁আগৰ	-3537
▁ফটো	-3538
▁মুৰ	-3539
▁ছিৰি	-3540
▁দেশে	-3541
▁প্রচ	-3542
▁পৰ্ব	-3543
▁বলটো	-3544
▁শ্ৰম	-3545
▁অৱবাহ	-3546
▁ঘটনাৰ	-3547
▁ছাত্ৰ	-3548
▁হৈছে৷	-3549
▁সহায়ক	-3550
▁বিদ্ৰোহ	-3551
▁ভিটামিন	-3552
▁হৈছিলোঁ	-3553
▁প্ৰধানকৈ	-3554
▁আনুষ্ঠানিকভাৱে	-3555
ব৷	-3556
বয়	-3557
ৰাগ	-3558
ত্তৰ	-3559
দিনা	-3560
্যাদ	-3561
▁মিজ	-3562
▁লেক	-3563
জেণ্ট	-3564
▁দেৱী	-3565
াক্ষিক	-3566
▁সীমিত	-3567
▁নামকৰণ	-3568
▁শ্ৰেণীৰ	-3569
▁আত্মপ্ৰকাশ	-3570
ক্র	-3571
নাক	-3572
ভেন	-3573
াবৰ	-3574
াৰ্ম	-3575
েৰেল	-3576
্কাৰ	-3577
▁দোষ	-3578
াবোৰৰ	-3579
▁বজাই	-3580
স্থানৰ	-3581
▁কার্য	-3582
▁প্ৰাণ	-3583
▁বিতৰণ	-3584
▁ইঞ্জিন	-3585
▁তদুপৰি	-3586
▁বেছিকৈ	-3587
▁অনুষ্ঠানৰ	-3588
▁প্ৰতিনিধি	-3589
▁চলচ্চিত্ৰখন	-3590
▁তালিকাভুক্ত	-3591
টিক	-3592
▁গৌ	-3593
▁হু	-3594
▁জাল	-3595
▁ৰাও	-3596
▁কল্প	-3597
▁জন্ত	-3598
▁জয়ী	-3599
▁পণ্ড	-3600
▁ৰাখে	-3601
▁গতিকে	-3602
▁মিলিত	-3603
▁মিশ্ৰ	-3604
▁দিনটোত	-3605
▁দুৰ্বল	-3606
▁প্ৰতিৰ	-3607
▁সমাধান	-3608
▁কেনেদৰে	-3609
▁দিল্লীত	-3610
▁হিচাপেও	-3611
▁সঁচাকৈয়ে	-3612
▁গ্ৰীষ্মকালীন	-3613
থাৎ	-3614
ভিল	-3615
াপুৰ	-3616
▁টিপ	-3617
▁শ্ল	-3618
▁হাউ	-3619
▁১৯০	-3620
েচনেল	-3621
▁কর্ম	-3622
▁নির্	-3623
▁ৰায়	-3624
▁ট্ৰেক	-3625
▁সম্ভা	-3626
▁সৈনিক	-3627
▁পাৰস্প	-3628
▁বিনামূ	-3629
▁প্ৰতিশ্ৰ	-3630
▁সমালোচনা	-3631
▁চলচ্চিত্ৰত	-3632
বদ	-3633
▁আভ	-3634
▁তল	-3635
সম্প	-3636
িশোৰ	-3637
▁অংগ	-3638
▁নিব	-3639
▁সমৰ	-3640
▁কল্য	-3641
▁ঘৰলৈ	-3642
▁মহাস	-3643
▁মানি	-3644
▁পাছতে	-3645
▁পাবলৈ	-3646
▁সন্দেহ	-3647
▁সম্পাদ	-3648
▁বাসিন্দ	-3649
▁শিক্ষাৰ	-3650
▁জলপ্ৰপাত	-3651
▁নিৰাপত্তা	-3652
এই	-3653
ায	-3654
ক্ল	-3655
ত্র	-3656
ফ্ল	-3657
ৰাচৰ	-3658
▁কৃষক	-3659
▁গৰ্ভ	-3660
▁মনোৰ	-3661
▁২০০২	-3662
▁ফৰাচী	-3663
▁অৰ্ডাৰ	-3664
▁আৰক্ষী	-3665
▁মানসিক	-3666
▁গ্ৰেপ্ত	-3667
▁পৃথিৱীৰ	-3668
▁পাৰস্পৰিক	-3669
▁প্ৰত্যক্ষ	-3670
▁কাৰ্যনিৰ্বাহ	-3671
সম	-3672
▁০	-3673
্কা	-3674
▁অম	-3675
▁পৱ	-3676
ালাৰ	-3677
াৰ্ক	-3678
▁বহি	-3679
▁মগজ	-3680
▁মুহ	-3681
▁মৃত	-3682
▁ৰাগ	-3683
▁ৰিপ	-3684
▁চোৱা	-3685
▁পিছৰ	-3686
▁গাঁৱৰ	-3687
▁পিছলৈ	-3688
▁বুদ্ধ	-3689
▁ছবিখনত	-3690
▁প্রস্ত	-3691
▁ফেডাৰে	-3692
▁সঁজুলি	-3693
▁সচৰাচৰ	-3694
▁পৰ্যায়ত	-3695
▁ব্যাখ্যা	-3696
▁জনসাধাৰণৰ	-3697
▁খেলুৱৈসকলে	-3698
▁শেহতীয়াকৈ	-3699
ঁজি	-3700
ন্দন	-3701
িনাৰ	-3702
▁একো	-3703
▁ওড়	-3704
▁ছান	-3705
▁নৃত	-3706
জ্ঞান	-3707
েশ্বৰ	-3708
▁অবিহ	-3709
▁গাওঁ	-3710
▁অপাৰে	-3711
▁আঁচনি	-3712
▁মহাবি	-3713
▁মেট্ৰ	-3714
▁সম্পদ	-3715
▁বিদেশী	-3716
▁মাৰাঠা	-3717
▁মূল্যৰ	-3718
▁গুজৰাটৰ	-3719
▁অস্ত্ৰোপ	-3720
▁পেচাদাৰী	-3721
খৰ	-3722
সে	-3723
চীৰ	-3724
ডিট	-3725
লতা	-3726
াকৰ	-3727
াম্ব	-3728
▁নাপ	-3729
িকাৰী	-3730
▁পাছৰ	-3731
▁বেক্ট	-3732
▁মহম্ম	-3733
▁অন্তৰ্	-3734
▁অৰ্থাৎ	-3735
▁খাদ্যৰ	-3736
▁যিসকলে	-3737
▁শব্দটো	-3738
▁চুক্তিৰ	-3739
▁নেতৃত্বত	-3740
▁প্ৰতিক্ৰ	-3741
▁পৰিষ্কাৰ	-3742
▁খেলুৱৈয়ে	-3743
▁প্ৰতিবেদন	-3744
১৬	-3745
▁কব	-3746
াতকৈ	-3747
▁লুই	-3748
▁চীনৰ	-3749
▁থিয়	-3750
▁পত্ৰ	-3751
▁মাজে	-3752
▁মাটি	-3753
▁ৰখাৰ	-3754
াধিকাৰ	-3755
▁শান্তি	-3756
▁হৈছিল৷	-3757
ঁহ	-3758
গুণ	-3759
গৰৰ	-3760
র্ষ	-3761
াটো	-3762
▁আঙ	-3763
গতিত	-3764
▁খাই	-3765
▁চেক	-3766
▁সাধ	-3767
▁কলাৰ	-3768
▁খেলে	-3769
▁গীৰ্	-3770
▁গেইম	-3771
▁মণ্ড	-3772
▁লৈছে	-3773
▁সত্য	-3774
▁হায়	-3775
▁উপস্থ	-3776
▁ৰেডিঅ	-3777
▁জাপানী	-3778
▁ভাইৰাছ	-3779
▁অংশীদাৰ	-3780
▁একেবাৰে	-3781
▁সম্প্ৰসাৰণ	-3782
টল	-3783
▁সৌ	-3784
কৰণৰ	-3785
াময়	-3786
োমাৰ	-3787
▁দেও	-3788
▁নাজ	-3789
▁মটৰ	-3790
ালয়ে	-3791
▁অসাম	-3792
▁চলাই	-3793
▁আফগান	-3794
▁ভগৱান	-3795
েশ্যনেল	-3796
▁জলবায়	-3797
▁জীয়াই	-3798
▁নেচনেল	-3799
▁ৰাজকুম	-3800
▁নির্মাণ	-3801
েধ	-3802
োহণ	-3803
▁ৰক	-3804
িপ্ত	-3805
▁ছয়	-3806
ৃপক্ষ	-3807
▁কাষত	-3808
▁ছালৰ	-3809
▁নিষ্	-3810
▁বিফল	-3811
ক্ৰমিত	-3812
যন্ত্ৰ	-3813
▁ইয়াৰে	-3814
▁দক্ষতা	-3815
▁পঞ্জাৱ	-3816
▁থাকিবলৈ	-3817
▁সপ্তাহত	-3818
তাই	-3819
াগত	-3820
কালে	-3821
স্যৰ	-3822
্বিত	-3823
▁কলেজ	-3824
▁যিখন	-3825
▁আঘাতৰ	-3826
▁শৰীৰৰ	-3827
▁ছবিখনে	-3828
▁তেখেতৰ	-3829
▁মনোনীত	-3830
▁মানুহক	-3831
▁মিনিটত	-3832
▁মূৰ্তি	-3833
িপাক্ষিক	-3834
▁পেলাইছিল	-3835
▁পাকিস্তানৰ	-3836
সৰৰ	-3837
চিয়	-3838
▁বেন	-3839
▁আম্ব	-3840
▁আহাৰ	-3841
▁কৰ্প	-3842
▁দিনত	-3843
▁অৰণ্য	-3844
▁কুমাৰ	-3845
▁চুবুৰ	-3846
▁পিছতে	-3847
▁বয়সৰ	-3848
▁স্নাত	-3849
▁অবিহনে	-3850
▁প্রায়	-3851
▁সহায়ত	-3852
▁অনুশীলন	-3853
▁এনেকুৱা	-3854
▁বিক্ৰেত	-3855
▁পৰীক্ষাৰ	-3856
▁সংক্ৰমিত	-3857
▁পৃষ্ঠপোষক	-3858
▁বিনিয়োগৰ	-3859
▁তামিলনাডুৰ	-3860
বত	-3861
াং	-3862
ুড	-3863
▁গৱ	-3864
দানৰ	-3865
ভাৰত	-3866
ূৰ্ত	-3867
োৱাল	-3868
▁চিৰ	-3869
▁পথৰ	-3870
ন্যাস	-3871
স্ফোৰ	-3872
▁একেই	-3873
▁নিহত	-3874
▁বীমা	-3875
ীকালীন	-3876
েণ্ডাৰ	-3877
▁চান্দ	-3878
▁ডলাৰৰ	-3879
▁হৈছোঁ	-3880
▁আগবাঢ়	-3881
▁নাযায়	-3882
▁শিক্ষক	-3883
▁স্থানৰ	-3884
▁সোনকালে	-3885
▁কাৰ্যকৰী	-3886
▁ডিচেম্বৰ	-3887
▁বিশ্বজুৰি	-3888
▁মহাবিদ্যালয়	-3889
াও	-3890
বেশ	-3891
াছৰ	-3892
ষ্টি	-3893
▁উৎক	-3894
▁গেল	-3895
▁ডেম	-3896
▁ধনৰ	-3897
িবদ্ধ	-3898
▁আহিব	-3899
▁সন্ধ	-3900
স্পৰ্শ	-3901
▁স্মৃতি	-3902
▁ইতিবাচক	-3903
▁প্ৰণালী	-3904
▁বিস্ফোৰ	-3905
▁আৰম্ভণিৰ	-3906
▁অভিনেত্ৰী	-3907
▁গ্ৰেপ্তাৰ	-3908
▁বুজাবুজিৰ	-3909
ালম	-3910
িঞ্চ	-3911
েনিছ	-3912
্য্য	-3913
ৰ্ণৰ	-3914
▁সোণ	-3915
▁হেম	-3916
গোষ্ঠ	-3917
▁বাৰে	-3918
▁ব্ৰহ	-3919
▁সিংহ	-3920
▁১৯৯৮	-3921
্ত্বিক	-3922
▁দৈৰ্ঘ	-3923
▁বাস্ত	-3924
▁হোৱাত	-3925
▁ৰেটিন	-3926
▁পাহাৰৰ	-3927
▁ইতিহাসৰ	-3928
▁বাহিনীৰ	-3929
▁নিয়মীয়া	-3930
াদৰ	-3931
োকৰ	-3932
াৰ্গ	-3933
▁ডিভ	-3934
▁দাখ	-3935
▁হোট	-3936
▁কামত	-3937
▁দৃঢ়	-3938
▁নেতা	-3939
▁১৯৮০	-3940
াৰ্শ্ব	-3941
▁মাটিৰ	-3942
▁মিত্ৰ	-3943
▁উত্থাপন	-3944
▁সেইবোৰৰ	-3945
▁দ্বিপাক্ষিক	-3946
বেল	-3947
ুকি	-3948
োহৰ	-3949
▁সপ	-3950
▁আশে	-3951
▁লাড	-3952
▁ৱাল	-3953
▁আচৰণ	-3954
▁গায়	-3955
▁১৯৪৭	-3956
▁দলটোৰ	-3957
▁পোনপট	-3958
যুক্তিৰ	-3959
▁দেশবাস	-3960
▁পৰ্যটন	-3961
▁নৱেম্বৰ	-3962
▁আৰক্ষীয়ে	-3963
▁প্ৰশিক্ষক	-3964
৩০	-3965
ৱেল	-3966
জন্ত	-3967
াক্স	-3968
▁মেৰ	-3969
দায়ক	-3970
নিৱেশ	-3971
▁গোটৰ	-3972
জিয়াম	-3973
▁উদ্ভৱ	-3974
▁দাখিল	-3975
▁বন্দৰ	-3976
▁সমাজৰ	-3977
▁দৰিদ্ৰ	-3978
▁সংস্থাৰ	-3979
▁পৰিস্থিতি	-3980
▁প্ৰতিশ্ৰুতি	-3981
নিব	-3982
স্ম	-3983
িকো	-3984
োকৈ	-3985
িয়ক	-3986
▁আইচ	-3987
াবদ্ধ	-3988
▁একাড	-3989
▁টকাৰ	-3990
নামূলক	-3991
▁চলোৱা	-3992
▁বাবেই	-3993
▁ভিতৰৰ	-3994
▁সাগৰৰ	-3995
▁আগুৱাই	-3996
▁ইউনাইট	-3997
▁প্ৰশ্ন	-3998
▁পৰিচয়	-3999
▁বাহিৰৰ	-4000
▁কংগ্ৰেছ	-4001
▁সম্পন্ন	-4002
▁নিউয়ৰ্ক	-4003
▁বিষয়বস্ত	-4004
▁গুৰুত্বপূর্ণ	-4005
গল	-4006
ক্ক	-4007
ছিছ	-4008
জেন	-4009
র্ধ	-4010
▁এৰ	-4011
▁চু	-4012
▁দৌ	-4013
কীয়	-4014
শ্ৰে	-4015
সময়	-4016
▁সুত	-4017
টোৱেই	-4018
▁নিৰী	-4019
▁ফালৰ	-4020
▁ষ্টক	-4021
▁হিংস	-4022
▁১৯৯২	-4023
▁বাতিল	-4024
▁একাডেম	-4025
কাৰীসকলে	-4026
▁চলাইছিল	-4027
▁সামান্য	-4028
▁নৃত্যশিল্প	-4029
টেন	-4030
াচল	-4031
ুণৰ	-4032
▁এত	-4033
▁ঔৰ	-4034
ৃত্ত	-4035
▁তুম	-4036
▁তেজ	-4037
▁বিব	-4038
ৱৰ্তন	-4039
▁আইনী	-4040
▁ক্ৰম	-4041
▁চুটি	-4042
▁লীগৰ	-4043
বয়স্ক	-4044
▁ছুপাৰ	-4045
▁স্মৰণ	-4046
▁অসামৰিক	-4047
▁উৎসাহিত	-4048
▁পৌৰসভাৰ	-4049
▁প্ৰতিখন	-4050
▁প্ৰথমতে	-4051
▁সংবিধান	-4052
▁ৰাজবংশৰ	-4053
▁কাউণ্টিৰ	-4054
▁খ্ৰীষ্টাব্দ	-4055
ভে	-4056
র্জ	-4057
াদি	-4058
▁ওখ	-4059
▁কী	-4060
তাৰে	-4061
▁জেক	-4062
▁পেছ	-4063
▁ফিন	-4064
▁বগা	-4065
▁কাকত	-4066
▁পৰাৰ	-4067
িত্তিক	-4068
▁জুলাই	-4069
▁বিৱৰণ	-4070
▁বৰ্ষৰ	-4071
মন্ত্ৰী	-4072
▁নিয়োগ	-4073
▁পৌৰসভা	-4074
▁লাগিছে	-4075
▁শাৰীৰিক	-4076
▁শুভেচ্ছ	-4077
▁ইউনাইটেড	-4078
▁প্ৰাৰ্থনা	-4079
▁স্বাভাৱিক	-4080
▁আগবঢ়াইছিল	-4081
▁বিশ্বযুদ্ধ	-4082
ফা	-4083
১১	-4084
ভিন	-4085
লিত	-4086
িছো	-4087
ৰাত	-4088
▁যত	-4089
শিলা	-4090
োহিত	-4091
▁খুব	-4092
▁ঘোঁ	-4093
▁ভিন	-4094
▁লেন	-4095
▁সংয	-4096
▁ৰয়	-4097
▁অট্ট	-4098
▁আৰ্ট	-4099
▁উন্ম	-4100
▁কাৰক	-4101
▁ৰাজপ	-4102
▁ৰূপৰ	-4103
▁ত্ৰিপ	-4104
▁নিজেই	-4105
▁পৰিষদ	-4106
▁ষ্টাৰ	-4107
▁সঘনাই	-4108
▁ঘটিছিল	-4109
▁সহযোগী	-4110
▁কানাডাৰ	-4111
▁অঞ্চলটোত	-4112
▁কঢ়িয়াই	-4113
▁অলিম্পিকত	-4114
▁ব্যক্তিয়ে	-4115
ধিক	-4116
াধীন	-4117
িংটন	-4118
▁গাহ	-4119
▁পেশ	-4120
▁বুট	-4121
▁ব্র	-4122
▁মুৰব	-4123
▁ইজৰাই	-4124
▁কোৱাৰ	-4125
▁চহৰখন	-4126
▁পাছলৈ	-4127
▁পৰাকৈ	-4128
▁আঁচনিৰ	-4129
▁বিৰক্ত	-4130
▁মহাকাশ	-4131
▁উদ্ভাৱন	-4132
▁নিৰ্বাচন	-4133
▁প্ৰজাতিৰ	-4134
জক	-4135
শু	-4136
ূত	-4137
ৰুণ	-4138
ানাৰ	-4139
▁কিক	-4140
▁সংশ	-4141
▁সূচ	-4142
ৰ্ভাৱ	-4143
▁গোচৰ	-4144
▁প্রস	-4145
▁ৰাতিপ	-4146
▁প্রত্য	-4147
▁গ্ৰাম্য	-4148
▁নিষিদ্ধ	-4149
▁অভিজ্ঞতা	-4150
▁মন্দিৰটো	-4151
▁শ্বেয়াৰ	-4152
▁সংস্পৰ্শ	-4153
▁প্ৰশাসনিক	-4154
▁প্ৰতিযোগিতাৰ	-4155
▁প্ৰাপ্তবয়স্ক	-4156
সহ	-4157
৬০	-4158
▁নৈ	-4159
▁চাউ	-4160
▁জলস	-4161
▁মেঘ	-4162
নাট্য	-4163
যাত্ৰ	-4164
▁উষ্ণ	-4165
▁জৰুৰ	-4166
▁পাৰত	-4167
▁লাইন	-4168
▁গ্ৰীক	-4169
▁তথ্যৰ	-4170
▁লাডাখ	-4171
▁ইলেক্ট	-4172
▁কংগ্ৰে	-4173
▁ছোৱালী	-4174
▁নৃত্যৰ	-4175
▁পৱিত্ৰ	-4176
▁বস্তুৰ	-4177
▁মুদ্ৰা	-4178
▁কৰাইছিল	-4179
▁আৱিষ্কাৰ	-4180
▁নোহোৱাকৈ	-4181
▁শুভেচ্ছা	-4182
▁ক্ষতিগ্ৰস্ত	-4183
▁সম্প্ৰদায়ৰ	-4184
আপ	-4185
নিং	-4186
িউট	-4187
ওৱাৰ	-4188
ন্দা	-4189
্ছেদ	-4190
▁গেম	-4191
▁নিল	-4192
▁মেই	-4193
▁শোক	-4194
▁হৰি	-4195
▁উজ্জ	-4196
▁পেৰা	-4197
▁ৰাখক	-4198
▁বন্দী	-4199
▁বাজেট	-4200
▁ভাস্ক	-4201
▁মালিক	-4202
▁অট্টাল	-4203
▁অন্ধ্ৰ	-4204
▁সমান্ত	-4205
▁তাপমাত্ৰ	-4206
▁আন্তঃগাঁথনি	-4207
টনৰ	-4208
বাব	-4209
োৰৰ	-4210
ৰাব	-4211
ছফ্ট	-4212
ায়ন	-4213
▁উপদ	-4214
▁বেক	-4215
গ্ৰাফ	-4216
ভূমিৰ	-4217
াবাদী	-4218
▁আদিৰ	-4219
▁জম্ম	-4220
▁ধৰণে	-4221
▁মল্ল	-4222
▁শিলৰ	-4223
▁১৯৯০	-4224
বাতোকৈ	-4225
▁আৰোহণ	-4226
▁ওড়িশ	-4227
▁দেৱতা	-4228
▁উত্তৰা	-4229
▁দেউতাক	-4230
▁দৃষ্টিভ	-4231
▁ৰাছিয়াৰ	-4232
▁জৰুৰীকালীন	-4233
ূৰ	-4234
চাল	-4235
বেক	-4236
হণা	-4237
▁৭০	-4238
চাৰৰ	-4239
▁কেথ	-4240
▁গুহ	-4241
বদন্ত	-4242
মানিক	-4243
▁এঞ্জ	-4244
▁কণ্ঠ	-4245
▁দিশৰ	-4246
▁ধন্য	-4247
েম্বৰৰ	-4248
▁ফলপ্ৰ	-4249
▁বন্ধৰ	-4250
▁বৰ্ষত	-4251
▁মাজভা	-4252
▁অভিহিত	-4253
▁ছেইণ্ট	-4254
▁তাৰিখে	-4255
▁তেলেগু	-4256
▁আধাৰশিলা	-4257
▁কিংবদন্ত	-4258
▁সংস্কৃতি	-4259
সু	-4260
▁–	-4261
নীৰ	-4262
পৰি	-4263
ফাৰ	-4264
মাত	-4265
▁৩৫	-4266
বহুল	-4267
শ্বৰ	-4268
াপনা	-4269
িবাৰ	-4270
্রাজ	-4271
▁আইড	-4272
▁পথত	-4273
▁পাম	-4274
▁লওক	-4275
দ্যোগ	-4276
ৰিহণা	-4277
▁অক্স	-4278
▁উলিও	-4279
▁বর্ত	-4280
▁বহুল	-4281
▁১৯৯৬	-4282
▁আশংকা	-4283
▁গ্রহণ	-4284
▁গ্ৰেট	-4285
▁চাকৰি	-4286
▁ৰেহাই	-4287
▁ঐতিহ্য	-4288
▁যুক্তি	-4289
▁সিন্ধু	-4290
▁স্বামী	-4291
িয়াইছিল	-4292
▁অত্যন্ত	-4293
▁সবাতোকৈ	-4294
▁সমান্তৰাল	-4295
▁মন্ত্ৰালয়ৰ	-4296
গন	-4297
াসী	-4298
্লৱ	-4299
ৰেট	-4300
▁পর	-4301
▁লু	-4302
ংগাল	-4303
পাশে	-4304
▁খনি	-4305
▁জিম	-4306
▁দাম	-4307
▁নাও	-4308
▁শুন	-4309
▁হাছ	-4310
▁অক্ষ	-4311
▁সুনি	-4312
▁ৰীতি	-4313
▁জ্ঞান	-4314
▁বেংকৰ	-4315
▁শ্ৰীল	-4316
▁অনুপ্ৰ	-4317
▁ইণ্ডোন	-4318
▁উলিয়া	-4319
▁খেলখনত	-4320
▁প্ৰিয়	-4321
▁স্বত্ব	-4322
▁অভিযানৰ	-4323
▁জলসিঞ্চ	-4324
▁ধাৰাবাহ	-4325
▁প্ৰয়োগ	-4326
▁ফলপ্ৰসূ	-4327
▁ব্ৰেণ্ড	-4328
▁ভাইৰাছৰ	-4329
▁প্ৰযোজনা	-4330
্না	-4331
▁পচ	-4332
াকাৰ	-4333
াব্ল	-4334
▁অকল	-4335
▁জুই	-4336
▁নাক	-4337
▁লেট	-4338
বাৰ্ট	-4339
▁সাজু	-4340
▁সুখী	-4341
▁স্কট	-4342
সংখ্যক	-4343
▁গায়ক	-4344
▁দিয়ক	-4345
▁পুঁজি	-4346
▁শৈলীৰ	-4347
▁বৰষুণৰ	-4348
▁মনোযোগ	-4349
▁শৃংখলা	-4350
▁উদ্যোগৰ	-4351
▁প্ৰজাতি	-4352
▁মন্তব্য	-4353
▁শিলালিপ	-4354
▁ৰাষ্ট্র	-4355
▁পাৰ্থক্য	-4356
▁ব্যৱসায়ৰ	-4357
▁কেন্দ্রীয়	-4358
▁ফেব্ৰুৱাৰী	-4359
▁কোম্পানীয়ে	-4360
াইজ	-4361
াণী	-4362
ক্ষক	-4363
গামী	-4364
াকৰণ	-4365
ৰ্কে	-4366
▁গৰম	-4367
▁চিট	-4368
▁জেম	-4369
▁থাই	-4370
▁নগদ	-4371
▁নেহ	-4372
্বয়ে	-4373
▁উপাধ	-4374
▁গোৱা	-4375
▁প্রত	-4376
▁বিৰল	-4377
▁সর্ব	-4378
▁১৯৭০	-4379
▁কৰিবৰ	-4380
▁ড্ৰাগ	-4381
▁ৰাস্ত	-4382
▁দ্ৰুতগতিত	-4383
▁সম্প্ৰচাৰ	-4384
▁বিশ্ববিদ্যালয়ত	-4385
ডা	-4386
৪০	-4387
লীত	-4388
▁সঁ	-4389
▁৮০	-4390
ণ্ডী	-4391
▁আলা	-4392
▁মাৰি	-4393
▁১৯৯৫	-4394
▁কিশোৰ	-4395
▁ছিজনৰ	-4396
▁জাপান	-4397
▁পঞ্চম	-4398
▁পেট্ৰ	-4399
▁বৈদ্য	-4400
▁এছিয়া	-4401
▁পণ্ডিত	-4402
▁প্রকাশ	-4403
▁প্রদান	-4404
▁সকলোৱে	-4405
মান্বয়ে	-4406
▁সম্বন্ধ	-4407
▁মধ্যপ্ৰদেশ	-4408
▁পৰম্পৰাগতভাৱে	-4409
জীৱ	-4410
দেৱ	-4411
পিং	-4412
র্ড	-4413
াগে	-4414
ুৰত	-4415
ৰীণ	-4416
▁আছ	-4417
▁৯০	-4418
হত্য	-4419
▁খোদ	-4420
▁পোহ	-4421
▁বাক	-4422
▁মেড	-4423
েক্টৰ	-4424
▁ডাটা	-4425
▁নিৰা	-4426
▁সচিব	-4427
▁আদালত	-4428
▁পেনাল	-4429
▁সতৰ্ক	-4430
▁এনেদৰে	-4431
▁ঔদ্যোগ	-4432
▁তিনিখন	-4433
▁বিষয়ত	-4434
▁ব্ৰহ্ম	-4435
▁মহম্মদ	-4436
▁সকলোৰে	-4437
▁স্নাতক	-4438
▁অতিক্ৰম	-4439
▁অৱস্থাৰ	-4440
▁একেধৰণৰ	-4441
▁ক্ষুদ্ৰ	-4442
▁দ্বীপপু	-4443
▁প্ৰজন্ম	-4444
▁ইণ্ডোনেছ	-4445
▁টেলিভিছন	-4446
▁প্ৰতিবাদ	-4447
▁চলচ্চিত্ৰৰ	-4448
▁চিকিৎসালয়	-4449
ঘু	-4450
লন	-4451
ডাল	-4452
তিত	-4453
ধাৰ	-4454
নীত	-4455
▁ইৰ	-4456
উদ্দ	-4457
াহ্ম	-4458
▁আইঅ	-4459
▁জনত	-4460
▁মেট	-4461
▁সৰল	-4462
▁১৮৫	-4463
▁চনলৈ	-4464
▁শাৰী	-4465
▁কাৰাগ	-4466
▁কেণ্ট	-4467
▁পাৰ্চ	-4468
▁বায়ু	-4469
▁শ্বুট	-4470
▁সঁহাৰ	-4471
▁বাহিনী	-4472
▁বুজায়	-4473
্যন্তৰীণ	-4474
▁অত্যধিক	-4475
▁জেনেৰেল	-4476
▁নিৰ্ণয়	-4477
▁প্ৰবন্ধ	-4478
▁প্রয়োজন	-4479
▁উত্তৰাধিকাৰী	-4480
'-	-4481
চত	-4482
জয়	-4483
ন্তৰ	-4484
সপ্ত	-4485
াধীশ	-4486
▁ইৰা	-4487
▁জলা	-4488
ক্তিৰ	-4489
▁আঁতৰ	-4490
▁উপাস	-4491
▁বসতি	-4492
▁যুগত	-4493
▁সহজে	-4494
গৰাকীৰ	-4495
▁ঠাণ্ড	-4496
▁ফিলিপ	-4497
▁মোকাব	-4498
▁স্বয়	-4499
▁উন্নীত	-4500
▁তিনিজন	-4501
▁পৰিষদৰ	-4502
▁বিৰোধী	-4503
▁সন্ত্ৰ	-4504
▁নাছিলোঁ	-4505
▁চুবুৰীয়া	-4506
▁প্ৰচেষ্টা	-4507
▁বিষয়াসকলে	-4508
▁কোম্পানীটোৱে	-4509
উড	-4510
লৱে	-4511
ামক	-4512
্য়	-4513
▁ভৌ	-4514
স্তি	-4515
ায্য	-4516
▁গৰু	-4517
▁চীন	-4518
▁চৌহ	-4519
▁মিচ	-4520
▁সংল	-4521
▁আৱেগ	-4522
▁ইত্য	-4523
▁ছিংগ	-4524
▁ফাইল	-4525
▁শাখা	-4526
▁ব্লেক	-4527
▁শুকান	-4528
▁ষ্টেট	-4529
▁পেলোৱা	-4530
▁ভূখণ্ড	-4531
▁সংগঠিত	-4532
▁সভাপতি	-4533
▁অভিনয়ৰ	-4534
▁আনন্দিত	-4535
▁ছফ্টৱেৰ	-4536
▁সন্মুখত	-4537
▁স্বাধীন	-4538
▁দেশসমূহৰ	-4539
▁মূল্যায়	-4540
▁দৃষ্টিভংগ	-4541
▁দ্বিতীয়টো	-4542
▁বিনামূলীয়া	-4543
দৃ	-4544
১৩	-4545
ড়ী	-4546
দৰা	-4547
ৱাল	-4548
▁থে	-4549
▁ফৰ	-4550
ব্যৱ	-4551
▁অসং	-4552
▁হোম	-4553
গুপ্ত	-4554
জাতিক	-4555
▁আইনৰ	-4556
▁গীতৰ	-4557
▁দম্প	-4558
▁নথকা	-4559
▁আবেদন	-4560
▁লেক্ৰ	-4561
▁শাসনৰ	-4562
▁সংগঠন	-4563
▁প্ৰতীক	-4564
▁স্বৰ্ণ	-4565
▁কম্পিউট	-4566
▁চুক্তিত	-4567
▁ফাইনেলত	-4568
▁মুম্বাই	-4569
▁আনুমানিক	-4570
▁সংৰক্ষিত	-4571
▁সন্ত্ৰাস	-4572
▁স্বাক্ষৰিত	-4573
▁প্ৰত্যাহ্বান	-4574
কু	-4575
১৪	-4576
১৭	-4577
চিড	-4578
দিক	-4579
ুখী	-4580
▁অহ	-4581
▁মল	-4582
কৰ্ম	-4583
▁ইহু	-4584
▁উৰি	-4585
▁কাট	-4586
▁জোৰ	-4587
ত্তিৰ	-4588
িয়েৰ	-4589
▁অনুপ	-4590
▁তুমি	-4591
▁বংগৰ	-4592
▁মহাম	-4593
▁১৯৯৭	-4594
মহাদেশ	-4595
▁চিনেম	-4596
▁বাস্ক	-4597
শ্ৰেষ্ঠ	-4598
▁অনুৰাগ	-4599
▁খেলখনৰ	-4600
▁ধন্যবাদ	-4601
▁মুহূৰ্ত	-4602
▁মুৰব্বী	-4603
▁যক্ষ্মা	-4604
▁যোগ্যতা	-4605
▁অস্থায়ী	-4606
▁অৰ্থনীতি	-4607
▁তেতিয়াৰ	-4608
ৈধ	-4609
খিন	-4610
মূল	-4611
র্চ	-4612
ৱাই	-4613
▁দা	-4614
▁মছ	-4615
ণ্ডা	-4616
দর্শ	-4617
ুতিক	-4618
▁পদৰ	-4619
▁বহল	-4620
▁ভবা	-4621
▁ডায়	-4622
▁নিশা	-4623
▁লেখক	-4624
▁ষষ্ঠ	-4625
▁ইফালে	-4626
▁উঠিছে	-4627
▁সুবিধ	-4628
▁সূৰ্য	-4629
▁নকৰাকৈ	-4630
▁যন্ত্ৰ	-4631
▁হায়দৰা	-4632
▁কোৰিয়াৰ	-4633
▁ভৱিষ্যতৰ	-4634
▁কৰ্তৃপক্ষ	-4635
▁বেলজিয়াম	-4636
▁ব্যৱস্থাপনা	-4637
▁প্রধানমন্ত্রী	-4638
গৃহ	-4639
ড়ৰ	-4640
পাছত	-4641
াঞ্চ	-4642
াস্ত	-4643
ুদ্র	-4644
▁কাই	-4645
▁ফাই	-4646
▁মূৰ	-4647
▁হৃদ	-4648
▁অপ্ৰ	-4649
▁ইন্দ	-4650
▁নিজে	-4651
▁নৰ্থ	-4652
▁বুজি	-4653
▁মাংস	-4654
▁শ্বট	-4655
▁সঞ্জ	-4656
▁সেউজ	-4657
▁গুপ্ত	-4658
▁তুলিব	-4659
▁আম্বেদ	-4660
▁বিতৰ্ক	-4661
ান্ত্ৰিক	-4662
▁তাৰপাছত	-4663
▁পূৰ্বতে	-4664
▁বিশিষ্ট	-4665
▁স্থাপনৰ	-4666
▁কেবিনেটে	-4667
▁বিজ্ঞানী	-4668
▁তামিলনাডু	-4669
▁নিৰ্ধাৰিত	-4670
▁স্বাধীনতাৰ	-4671
▁কোম্পানীটোৰ	-4672
▁ক্ৰমান্বয়ে	-4673
দন	-4674
মক	-4675
ংগল	-4676
ৰণি	-4677
▁যো	-4678
কলাপ	-4679
য়নত	-4680
ৰাহে	-4681
▁জাম	-4682
কাৰীৰ	-4683
▁অবৈধ	-4684
▁আধিপ	-4685
▁ইটাল	-4686
▁ঔষধৰ	-4687
▁খানৰ	-4688
▁দিশে	-4689
▁ষ্টু	-4690
▁কৰোৱা	-4691
▁ঘূৰ্ণ	-4692
▁প্লেট	-4693
▁শাসিত	-4694
▁উপযোগী	-4695
▁থিয়েট	-4696
▁স্তম্ভ	-4697
▁দুয়োজন	-4698
▁নিউজিলে	-4699
▁পৰিৱর্ত	-4700
▁বৃহত্তম	-4701
▁অভিনন্দন	-4702
▁ঔদ্যোগিক	-4703
▁নিৰীক্ষণ	-4704
▁শাসনকালত	-4705
▁শীতকালীন	-4706
▁বেছিভাগেই	-4707
▁পৰিস্থিতিৰ	-4708
দত	-4709
জিক	-4710
বান	-4711
াবে	-4712
িংক	-4713
ুলক	-4714
▁ইংগ	-4715
▁কটা	-4716
▁গৌৰ	-4717
▁বৰফ	-4718
গ্রহণ	-4719
েণ্টৰ	-4720
ৰ্ল্ড	-4721
▁আগ্ৰ	-4722
▁পদ্ম	-4723
▁লীগত	-4724
▁ৰাণী	-4725
▁এইদৰে	-4726
▁জম্মু	-4727
▁থকাটো	-4728
▁মগজুৰ	-4729
▁ইটালীৰ	-4730
▁নতুনকৈ	-4731
▁পেলায়	-4732
▁যাত্ৰী	-4733
▁অপেক্ষা	-4734
▁একেৰাহে	-4735
▁গান্ধীৰ	-4736
▁জলবায়ু	-4737
▁পর্যায়	-4738
▁বৈচিত্ৰ	-4739
▁ভাবিছিল	-4740
▁আমেৰিকাত	-4741
▁উপস্থাপন	-4742
▁মোকাবিলা	-4743
▁কাৰ্যসূচী	-4744
▁চেম্পিয়নশ্বিপত	-4745
ছাৰ	-4746
বুল	-4747
াপী	-4748
াৰো	-4749
▁এথ	-4750
▁চো	-4751
াগ্ৰ	-4752
োজিত	-4753
▁ঘাট	-4754
▁নকৰ	-4755
াৱধান	-4756
▁আৰ্ক	-4757
▁গ্ৰে	-4758
▁পুৰা	-4759
াসমূহত	-4760
▁চাৰ্ল	-4761
▁কৰোঁতে	-4762
▁ছুইজাৰ	-4763
▁আগবঢ়াব	-4764
▁উৎপাদনৰ	-4765
▁ৰিপাব্ল	-4766
▁ৰূপান্তৰিত	-4767
▁চলচ্চিত্ৰখনত	-4768
মল	-4769
ৃণ	-4770
ওঁক	-4771
ষাৰ	-4772
েকৰ	-4773
্ছৰ	-4774
▁৭৫	-4775
▁ছাই	-4776
▁দান	-4777
▁বুল	-4778
▁১৮৯	-4779
▁ৰেচ	-4780
▁আৱাস	-4781
▁পৰ্ত	-4782
▁উপবাস	-4783
▁দৈনিক	-4784
▁ভাৰতক	-4785
▁সিমান	-4786
▁ৰন্ধন	-4787
▁ৰেষ্ট	-4788
ধ্যাত্ম	-4789
▁জাতীয়	-4790
▁প্ৰব্ৰ	-4791
▁ক্ৰেডিট	-4792
▁খেলিবলৈ	-4793
▁ষ্টুডিঅ	-4794
▁উপমহাদেশ	-4795
▁সম্পৰ্কে	-4796
▁হাৰিয়ান	-4797
▁ৰাজ্যপাল	-4798
▁কাৰ্যবাহী	-4799
▁সৰ্বশ্ৰেষ্ঠ	-4800
▁কেলিফৰ্ণিয়াৰ	-4801
১৫	-4802
গাৰ	-4803
াইচ	-4804
▁ঔপ	-4805
কলাহ	-4806
বাহন	-4807
শালী	-4808
সূচী	-4809
▁আসন	-4810
▁কিউ	-4811
▁ভিক	-4812
▁যৌথ	-4813
▁৫০০	-4814
দৰ্শন	-4815
ান্তত	-4816
▁গুচি	-4817
▁জ্বৰ	-4818
▁ফ্ৰী	-4819
▁বাওঁ	-4820
▁কুকুৰ	-4821
▁ডেলিভ	-4822
▁মৌলিক	-4823
▁লণ্ডন	-4824
▁চাইকেল	-4825
▁জনাইছো	-4826
▁পৰ্তুগ	-4827
▁সোনকাল	-4828
▁প্ৰদেশত	-4829
▁সাম্রাজ	-4830
▁ইলেক্ট্ৰ	-4831
▁আপোনালোকৰ	-4832
▁আফগানিস্ত	-4833
▁ছেপ্টেম্বৰ	-4834
ঁত	-4835
থৰ	-4836
ধৰ	-4837
সভ	-4838
কেট	-4839
াঁত	-4840
ুলা	-4841
োহী	-4842
পুৰৰ	-4843
▁আউট	-4844
▁কৰো	-4845
▁ধৰে	-4846
▁যুট	-4847
▁সংম	-4848
ষ্ঠিত	-4849
াৰ্ছৰ	-4850
িপত্ৰ	-4851
▁বাছি	-4852
▁মহাব	-4853
▁সিঙে	-4854
▁১৯৬০	-4855
▁১৯৯৩	-4856
▁আগতেই	-4857
▁খেলিব	-4858
▁ছিকিম	-4859
▁মালয়	-4860
▁সফলতা	-4861
ৰাষ্ট্র	-4862
▁চনৰপৰা	-4863
▁মধ্যযু	-4864
▁বনাঞ্চল	-4865
▁মেনেজাৰ	-4866
▁শ্ৰদ্ধা	-4867
▁প্ৰচেষ্ট	-4868
▁সুৰক্ষাৰ	-4869
▁সংস্কৃতিৰ	-4870
ংঘ	-4871
জনো	-4872
মিন	-4873
োৎস	-4874
▁ছু	-4875
ফৰ্ম	-4876
বক্স	-4877
িতাৰ	-4878
েন্স	-4879
▁মোহ	-4880
▁অভয়	-4881
▁আদাল	-4882
▁এডাল	-4883
▁চিটি	-4884
▁ছেকে	-4885
▁শ্রী	-4886
▁সোৱা	-4887
▁হৈছো	-4888
▁১৯৯১	-4889
▁কুম্ভ	-4890
▁দুৰ্য	-4891
▁সেনাৰ	-4892
▁আনিছিল	-4893
▁জয়ন্ত	-4894
▁ঠাণ্ডা	-4895
▁তত্ত্ব	-4896
▁বেণ্ডী	-4897
▁লোকসকল	-4898
▁সিহঁতৰ	-4899
▁আৰক্ষীৰ	-4900
▁ইতিহাসত	-4901
▁উপত্যকা	-4902
▁তালিকাত	-4903
▁দক্ষিণে	-4904
▁ব্যৱধান	-4905
▁আধ্যাত্ম	-4906
▁কিছুমানে	-4907
▁কৰিছিলোঁ	-4908
▁সোনকালেই	-4909
▁পাহাৰীয়া	-4910
▁চিকিৎসালয়ত	-4911
ঙক	-4912
মজ	-4913
কাজ	-4914
ছেট	-4915
ভূত	-4916
াদা	-4917
▁৪৫	-4918
মাতৃ	-4919
োগ্য	-4920
▁দশক	-4921
▁মেম	-4922
▁যুগ	-4923
▁সোধ	-4924
▁হিট	-4925
দণ্ডৰ	-4926
লাইনত	-4927
▁আমাক	-4928
▁কৈছে	-4929
▁গণনা	-4930
▁শত্ৰ	-4931
▁আকৰ্ষ	-4932
▁পৰ্বত	-4933
▁অসংখ্য	-4934
▁পাণ্ড্য	-4935
▁বাস্কেট	-4936
▁বাৰ্তাল	-4937
▁সীমাবদ্ধ	-4938
▁অলিম্পিকৰ	-4939
▁সুনিশ্চিত	-4940
নছ	-4941
সংগ	-4942
িংহ	-4943
োচন	-4944
ৰীত	-4945
▁অত	-4946
▁ইক	-4947
▁হঠ	-4948
▁ৰত	-4949
বাবে	-4950
িন্স	-4951
▁আকব	-4952
▁ধ্ৰ	-4953
▁পুত	-4954
▁ভেল	-4955
▁সুধ	-4956
িয়েই	-4957
▁অৰ্ধ	-4958
▁আকাৰ	-4959
▁আনটো	-4960
▁ফৰ্ম	-4961
▁হয়৷	-4962
▁১৯৯৪	-4963
ৰাজ্যৰ	-4964
▁আছিল৷	-4965
▁কলম্ব	-4966
▁ছিৰিজ	-4967
▁নকৰিব	-4968
▁ধুমুহা	-4969
▁মহানগৰ	-4970
▁ৰাজত্ব	-4971
▁কাশ্মীৰ	-4972
▁কৰিছিল৷	-4973
▁পঞ্জীয়	-4974
▁দায়বদ্ধ	-4975
▁সম্পত্তি	-4976
▁স্থাপত্য	-4977
▁তুলনামূলক	-4978
মছ	-4979
িজম	-4980
োমা	-4981
▁জগ	-4982
ষ্টৰ	-4983
ুলিৰ	-4984
▁ঋতু	-4985
▁কাজ	-4986
▁চিপ	-4987
▁ছেল	-4988
▁জৈৱ	-4989
▁তাৎ	-4990
▁নিখ	-4991
▁বলী	-4992
▁লুক	-4993
▁১৫০	-4994
▁ৰাণ	-4995
▁ৱেল	-4996
াইটিছ	-4997
াৰণ্য	-4998
▁আহমে	-4999
▁খালী	-5000
▁চুৰি	-5001
▁তিৰু	-5002
▁ভগ্ন	-5003
ফেয়াৰ	-5004
ুৰেণ্ট	-5005
▁ইংগিত	-5006
▁গাঁৱত	-5007
▁ফিল্ড	-5008
▁বাদ্য	-5009
▁বিন্দ	-5010
ভিত্তিক	-5011
সায়নিক	-5012
▁বিয়পি	-5013
▁লণ্ডনৰ	-5014
▁শিল্পী	-5015
▁সংশোধন	-5016
▁ইনষ্টিট	-5017
▁উপকূলীয়	-5018
▁সম্পৰ্কৰ	-5019
▁ৰাজ্যসমূহৰ	-5020
▁সমান্তৰালভাৱে	-5021
ইল	-5022
দু	-5023
২৫	-5024
চিৰ	-5025
ড়ি	-5026
মেৰ	-5027
ৱতী	-5028
▁এচ	-5029
▁ভৰ	-5030
▁মৃ	-5031
সভাৰ	-5032
াহিত	-5033
িটেড	-5034
▁অসম	-5035
▁আংশ	-5036
▁ওজন	-5037
▁কোল	-5038
▁ছিল	-5039
▁টুক	-5040
▁আদেশ	-5041
▁কেঁচ	-5042
▁কৰিম	-5043
▁খায়	-5044
▁প্ৰক	-5045
▁বন্য	-5046
ডব্লিউ	-5047
▁ক্ষমা	-5048
▁চালুক	-5049
▁বিচ্ছ	-5050
▁যিসকল	-5051
▁হেণ্ড	-5052
▁দৃষ্টি	-5053
▁মিজোৰা	-5054
▁শ্ৰমিক	-5055
▁স্বয়ং	-5056
▁ৰাজপুত	-5057
▁আলাউদ্দ	-5058
▁জনগোষ্ঠ	-5059
▁বাহিৰলৈ	-5060
▁ব্ৰাহ্ম	-5061
▁সংস্কাৰ	-5062
▁সন্মিলন	-5063
▁ৰক্তক্ষ	-5064
▁উইলিয়াম	-5065
▁ক্ৰীড়াৰ	-5066
▁পৰ্যাপ্ত	-5067
▁ৰাতিপুৱা	-5068
হী	-5069
ংগৰ	-5070
টিভ	-5071
বিৰ	-5072
সেন	-5073
▁নম	-5074
▁পব	-5075
য়েছ	-5076
র্জন	-5077
ৰ্জন	-5078
ৰ্ডৰ	-5079
▁আকৌ	-5080
▁ঘটন	-5081
▁ছিম	-5082
▁জগত	-5083
▁বতৰ	-5084
▁মৌৰ	-5085
▁ৰেল	-5086
▁অধিন	-5087
▁দলটো	-5088
▁নামত	-5089
ভাৰম্ভ	-5090
▁উপাধি	-5091
▁খণ্ডত	-5092
▁জীৱনত	-5093
▁বজাৰৰ	-5094
▁বৈদিক	-5095
▁ৱাশ্ব	-5096
▁প্রভাৱ	-5097
▁কৃতিত্ব	-5098
▁পদ্ধতিৰ	-5099
▁মাৰ্কিন	-5100
▁মিলিয়ন	-5101
▁বৈদ্যুতিক	-5102
▁মহিলাসকলৰ	-5103
▁শাস্ত্ৰীয়	-5104
ৱন	-5105
ফেল	-5106
ৰ্চ	-5107
▁এব	-5108
বছৰৰ	-5109
াৰ্ন	-5110
োক্ত	-5111
্জিন	-5112
্ৰমা	-5113
▁কুল	-5114
▁পইচ	-5115
▁বীৰ	-5116
▁বেগ	-5117
▁ভৱন	-5118
▁হোৱ	-5119
নীয়া	-5120
সময়ত	-5121
▁অস্ত	-5122
▁অৱগত	-5123
▁গুলী	-5124
▁চেলছ	-5125
▁দুয়	-5126
▁বাৰা	-5127
▁শুনি	-5128
▁স্বৰ	-5129
াসমূহে	-5130
▁কিনিব	-5131
▁ডিস্ক	-5132
▁তুলনা	-5133
▁প্ৰিম	-5134
▁সপ্তম	-5135
ত্ত্বেও	-5136
▁এণ্ড্ৰ	-5137
▁দোকানৰ	-5138
▁কেইবাজনো	-5139
▁সন্তুষ্ট	-5140
▁ইণ্টাৰনেট	-5141
ফী	-5142
ুঝ	-5143
বৰা	-5144
িদৰ	-5145
ঞ্চি	-5146
ভাবে	-5147
লতাৰ	-5148
্ৰয়	-5149
▁কিম	-5150
▁খাপ	-5151
▁গাভ	-5152
▁ডাই	-5153
▁যুঁ	-5154
▁এদিন	-5155
▁কথাও	-5156
▁কালি	-5157
ায়াৰৰ	-5158
▁আইডাহ	-5159
▁জন্তু	-5160
▁প্ৰাস	-5161
▁স্বাম	-5162
▁আন্তৰ্	-5163
▁ঘনিষ্ঠ	-5164
▁অনলাইনত	-5165
▁জানিবলৈ	-5166
▁নিযুক্ত	-5167
▁বর্তমান	-5168
▁বিশ্লেষ	-5169
▁ৰাজকীয়	-5170
▁আন্দোলনৰ	-5171
▁প্ৰকৃততে	-5172
▁শুভাৰম্ভ	-5173
▁ৰাজকুমাৰ	-5174
▁আকৰ্ষণীয়	-5175
▁তাপমাত্ৰা	-5176
▁ৰেষ্টুৰেণ্ট	-5177
▁অষ্ট্ৰেলিয়ান	-5178
ুছ	-5179
৮০	-5180
বীৰ	-5181
াকি	-5182
ামে	-5183
াইনৰ	-5184
িত্ত	-5185
েন্ট	-5186
্লিক	-5187
▁কনফ	-5188
▁ছাব	-5189
▁টান	-5190
▁টিউ	-5191
▁হুই	-5192
▁হ্র	-5193
বাহিত	-5194
মাৰ্ক	-5195
ান্তি	-5196
▁অগ্র	-5197
▁আকাশ	-5198
▁কমিট	-5199
▁খানে	-5200
▁চিলা	-5201
▁মহীশ	-5202
েন্দ্ৰ	-5203
▁আয়াৰ	-5204
▁পেলাই	-5205
▁বজাৰত	-5206
▁বৈষ্ণ	-5207
▁হতাশা	-5208
▁অৰিহণা	-5209
▁চহৰখনত	-5210
▁প্ৰাদু	-5211
▁বন্ধুত	-5212
▁বিবাহৰ	-5213
▁লিমিটেড	-5214
▁সফলতাৰে	-5215
▁পৰিক্ৰমা	-5216
▁সৈন্যবাহ	-5217
▁ধাৰাবাহিক	-5218
▁প্ৰদৰ্শনৰ	-5219
▁বাহিনীয়ে	-5220
▁বিমানবন্দ	-5221
▁অস্বাভাৱিক	-5222
▁আধ্যাত্মিক	-5223
▁এতিয়ালৈকে	-5224
▁প্ৰতিষ্ঠাপক	-5225
▁প্ৰতিক্ৰিয়া	-5226
ভেল	-5227
াপত	-5228
ৰাও	-5229
▁কপ	-5230
▁তৎ	-5231
▁৩২	-5232
িকেন	-5233
▁অটো	-5234
▁আহত	-5235
▁কোড	-5236
▁ডিম	-5237
▁দীপ	-5238
▁দ্র	-5239
▁ফিফ	-5240
▁মেগ	-5241
▁যেত	-5242
▁সৌৰ	-5243
ক্ষণৰ	-5244
▁ছাইট	-5245
▁জাৰি	-5246
▁কেম্প	-5247
▁খোদিত	-5248
▁চেনেল	-5249
▁সংগ্ৰ	-5250
▁সাব্য	-5251
▁বিজয়ৰ	-5252
▁মাউণ্ট	-5253
▁ৰাউণ্ড	-5254
▁আমন্ত্ৰ	-5255
▁চিকিৎসক	-5256
▁সম্ভাব্য	-5257
▁সাব্যস্ত	-5258
▁অনুষ্ঠানটো	-5259
▁ক্ৰান্তীয়	-5260
)-	-5261
ঙা	-5262
জু	-5263
ীজ	-5264
৭০	-5265
কাত	-5266
িছত	-5267
▁অগ	-5268
▁পট	-5269
সাগৰ	-5270
াণিত	-5271
ামাৰ	-5272
ুলাৰ	-5273
▁আধা	-5274
▁উঠে	-5275
▁হিউ	-5276
ীকৰণৰ	-5277
▁আনিব	-5278
▁আহৰণ	-5279
▁ইজনে	-5280
▁এটাত	-5281
▁টিকট	-5282
▁ভক্ত	-5283
▁ভাঙি	-5284
▁১৯৭১	-5285
▁ৰজাৰ	-5286
▁কাৰিক	-5287
▁থাকোঁ	-5288
▁পাঞ্জ	-5289
▁পুনৰু	-5290
▁পেলাব	-5291
▁উৎসৰ্গ	-5292
▁কল্যাণ	-5293
▁কেৰালা	-5294
▁জলাশয়	-5295
▁নালাগে	-5296
▁বিপৰীত	-5297
▁ভাবুকি	-5298
▁ৱৰ্ল্ড	-5299
▁আধিপত্য	-5300
▁একাডেমী	-5301
▁তুলিবলৈ	-5302
▁দেখিবলৈ	-5303
▁ভাৰ্জিন	-5304
▁আৰ্জেণ্ট	-5305
▁ন্যায়াধীশ	-5306
▁হেৰুৱাইছিল	-5307
▁সম্প্ৰসাৰিত	-5308
ছী	-5309
গোল	-5310
চিক	-5311
▁লছ	-5312
▁শো	-5313
▁ৰৈ	-5314
ত্যৰ	-5315
ায়ত	-5316
িপিড	-5317
ুৰাৰ	-5318
ূর্ণ	-5319
▁আলী	-5320
▁উঠা	-5321
▁ঘাঁ	-5322
▁ডাল	-5323
▁ডুব	-5324
দেশিক	-5325
বিদ্য	-5326
মাণ্ড	-5327
ায়াম	-5328
িত্বৰ	-5329
োজনাৰ	-5330
▁অগ্ন	-5331
▁অধিব	-5332
▁এনিম	-5333
▁কাঠৰ	-5334
▁কাষৰ	-5335
▁খোলা	-5336
▁থাকি	-5337
▁বৰ্ধ	-5338
▁মূৰৰ	-5339
▁মেলা	-5340
▁সিঙৰ	-5341
▁অতিথি	-5342
▁আয়োগ	-5343
▁নেদাৰ	-5344
▁পাছতো	-5345
▁পাৱাৰ	-5346
▁পৰস্প	-5347
▁স্থিৰ	-5348
কাৰীয়ে	-5349
▁উপকূলৰ	-5350
▁এঞ্জেল	-5351
▁শীৰ্ষক	-5352
▁দুৰ্গটো	-5353
▁পাৰিছিল	-5354
▁বছৰবোৰত	-5355
▁যুটীয়া	-5356
▁পৰিৱৰ্তনৰ	-5357
▁অঞ্চলসমূহত	-5358
▁চিত্ৰগ্ৰহণ	-5359
দশ	-5360
ৱণ	-5361
ছনে	-5362
ডেন	-5363
ধুৰ	-5364
ফাঁ	-5365
ব্র	-5366
াটি	-5367
োনৰ	-5368
্টা	-5369
▁উম	-5370
▁ঋষ	-5371
▁এঘ	-5372
▁জী	-5373
▁লো	-5374
▁ৰহ	-5375
মুনা	-5376
াত্য	-5377
াৰেল	-5378
▁অৱন	-5379
▁কাগ	-5380
▁কাব	-5381
▁ন্য	-5382
▁বেদ	-5383
▁লেহ	-5384
াত্মা	-5385
িয়নৰ	-5386
▁অধীন	-5387
▁আলোক	-5388
▁সোণৰ	-5389
▁স্কে	-5390
▁হাঁও	-5391
প্রিয়	-5392
ালোচনা	-5393
▁কাৰ্ল	-5394
▁নদীখন	-5395
▁নেহৰু	-5396
▁ৰয়েল	-5397
▁নোৱাৰি	-5398
▁বিক্ৰম	-5399
▁লক্ষ্ম	-5400
▁উপলব্ধি	-5401
▁চেণ্টাৰ	-5402
▁বৈদেশিক	-5403
▁সঞ্চালক	-5404
▁আফ্ৰিকাৰ	-5405
▁নিৰ্বাচনৰ	-5406
▁ৰাসায়নিক	-5407
▁পঠিয়াইছিল	-5408
▁আন্তৰ্জাতিক	-5409
▁পৃষ্ঠপোষকতা	-5410
▁চলচ্চিত্ৰখনে	-5411
▁তুলনামূলকভাৱে	-5412
উন	-5413
এনএ	-5414
ছাছ	-5415
লটো	-5416
ৰ্ছ	-5417
▁মো	-5418
দিনে	-5419
পুৰত	-5420
ষ্টে	-5421
াগৰত	-5422
িবিৰ	-5423
▁ডাৰ	-5424
▁নাট	-5425
▁মাক	-5426
▁শৰী	-5427
ায়িত	-5428
▁অশ্ব	-5429
▁কষ্ট	-5430
▁গংগা	-5431
▁ডাউন	-5432
▁বতাহ	-5433
▁মানৰ	-5434
▁১৯৮২	-5435
বাৰ্গৰ	-5436
▁ঘণ্টা	-5437
▁নির্দ	-5438
▁লিখিত	-5439
▁উচ্চতা	-5440
▁গৱৰ্ণৰ	-5441
▁বিপদাশ	-5442
▁সংবেদন	-5443
▁আগবঢ়াই	-5444
▁ইলিনয়ৰ	-5445
▁উলিয়াই	-5446
▁বিচাৰিব	-5447
▁সংমিশ্ৰ	-5448
▁জনপ্রিয়	-5449
▁দুৰ্ঘটনা	-5450
▁পঞ্জীয়ন	-5451
▁অভয়াৰণ্য	-5452
▁মহিলাসকলে	-5453
▁পৰিস্থিতিত	-5454
▁ফিল্মফেয়াৰ	-5455
▁মহাৰাষ্ট্ৰৰ	-5456
াংক	-5457
াসে	-5458
াসৰ	-5459
েডী	-5460
েতন	-5461
▁আট	-5462
▁৩৬	-5463
িয়ৰ	-5464
▁টেক	-5465
▁দশম	-5466
▁বলি	-5467
▁সুক	-5468
শীলতা	-5469
িবোৰে	-5470
▁আছে৷	-5471
▁টাইফ	-5472
▁বংশৰ	-5473
▁১৯৭২	-5474
▁অনন্য	-5475
▁দুবাৰ	-5476
▁বসন্ত	-5477
▁সমাধি	-5478
▁পবিত্ৰ	-5479
▁অগ্ৰগতি	-5480
▁অসুবিধা	-5481
▁ইছলামিক	-5482
▁উদযাপনৰ	-5483
▁কাৰিকৰী	-5484
▁চিন্তিত	-5485
▁দূৰত্বত	-5486
▁বিলিয়ন	-5487
▁মালিকান	-5488
▁নেশ্যনেল	-5489
▁প্ৰৱৰ্তন	-5490
▁লিপিবদ্ধ	-5491
▁সময়লৈকে	-5492
▁সম্ভাৱ্য	-5493
▁গান্ধীয়ে	-5494
▁বিষয়বস্তু	-5495
▁বেলজিয়ামৰ	-5496
▁বিশ্বযুদ্ধৰ	-5497
▁যুক্তৰাষ্ট্র	-5498
',	-5499
সৌ	-5500
আউট	-5501
চীত	-5502
ডাক	-5503
মতে	-5504
▁থল	-5505
▁হো	-5506
▁ঋণৰ	-5507
▁থ্ৰ	-5508
▁পদত	-5509
ীয়াৰ	-5510
▁চলিত	-5511
▁নদীত	-5512
▁বিপণ	-5513
▁মুখৰ	-5514
▁যত্ন	-5515
▁সন্ন	-5516
▁১৯৮৪	-5517
▁অভাৱৰ	-5518
▁সন্মত	-5519
▁সূত্ৰ	-5520
▁হোটেল	-5521
▁ৰোগীৰ	-5522
▁চুলতান	-5523
▁শাস্তি	-5524
▁সকলোকে	-5525
▁ৰাখিছে	-5526
কাৰীসকলৰ	-5527
▁অন্তর্ভ	-5528
▁নগৰীয়া	-5529
▁বৈজ্ঞান	-5530
▁মহাত্মা	-5531
▁হাঁওফাঁ	-5532
▁আমন্ত্ৰণ	-5533
▁প্ৰমাণিত	-5534
▁সংগীতজ্ঞ	-5535
▁ৰাজস্থানৰ	-5536
▁ঘন	-5537
▁শৌ	-5538
বৰ্ষ	-5539
াজ্ঞ	-5540
▁জৰী	-5541
▁ট্র	-5542
▁হিৰ	-5543
▁উৰ্ব	-5544
▁এন্ট	-5545
▁গণেশ	-5546
▁পোহৰ	-5547
▁বক্ত	-5548
▁ভাগত	-5549
ব্যাপী	-5550
শস্ত্ৰ	-5551
াক্ষিণ	-5552
েশ্যনৰ	-5553
▁জন্মৰ	-5554
▁নিবিচ	-5555
▁যদিহে	-5556
▁শৃংখল	-5557
▁সমগ্র	-5558
▁আৰ্দ্ৰ	-5559
▁যিটোৱে	-5560
▁সংঘৰ্ষ	-5561
▁সিংহাস	-5562
▁অধ্যাপক	-5563
▁দাক্ষিণ	-5564
▁প্ৰতিফল	-5565
▁সপ্তাহৰ	-5566
▁ৰাজ্যখন	-5567
▁পেনাল্টি	-5568
▁পৰম্পৰাৰ	-5569
▁সেউজীয়া	-5570
▁বাংলাদেশৰ	-5571
▁প্ৰচেষ্টাৰ	-5572
▁প্ৰথমগৰাকী	-5573
▁মৃত্যুদণ্ড	-5574
▁পোনপটীয়াকৈ	-5575
▁সামগ্ৰীসমূহ	-5576
কক	-5577
বন	-5578
হন	-5579
ডিএ	-5580
▁ৰণ	-5581
েচনৰ	-5582
্টোৰ	-5583
▁চলে	-5584
▁ঝাৰ	-5585
▁তিব	-5586
▁দলত	-5587
▁লাহ	-5588
ভাগ্য	-5589
▁শৰীৰ	-5590
▁১০০০	-5591
▁১৯৭৯	-5592
▁ৰপ্ত	-5593
ুনীয়া	-5594
▁অসন্ত	-5595
▁আৰ্হি	-5596
▁অসুস্থ	-5597
▁উৰিষ্য	-5598
▁খেলবিধ	-5599
▁চলিছিল	-5600
▁নাগালে	-5601
▁প্ৰাণী	-5602
▁বিষয়ৰ	-5603
▁আকৰ্ষিত	-5604
▁ইংলেণ্ড	-5605
▁মালয়েছ	-5606
▁সাহায্য	-5607
▁বিদ্যমান	-5608
▁প্রযুক্তি	-5609
▁মূল্যায়ন	-5610
▁ইনষ্টিটিউট	-5611
ৱী	-5612
ডিছ	-5613
সভা	-5614
্বি	-5615
▁অট	-5616
▁ঋত	-5617
ওঁতে	-5618
গতিৰ	-5619
গিৰি	-5620
গ্রী	-5621
টাৰে	-5622
ণ্ডত	-5623
▁কবি	-5624
▁কমন	-5625
▁খুচ	-5626
▁ছাউ	-5627
▁জিক	-5628
▁বৈধ	-5629
▁সমত	-5630
▁হান	-5631
ৰিষ্ঠ	-5632
▁ধাৰা	-5633
▁নিগম	-5634
▁সপোন	-5635
▁হাতী	-5636
▁১৯৫৬	-5637
▁১৯৮৭	-5638
▁ৰোমা	-5639
▁একাংশ	-5640
▁দিশলৈ	-5641
▁পাঠ্য	-5642
▁মুখাম	-5643
▁সাতটা	-5644
▁সোৱাদ	-5645
▁স্তৰৰ	-5646
▁সৰবৰা	-5647
স্থায়ী	-5648
▁আশ্ৰয়	-5649
▁উৎপন্ন	-5650
▁চাৰিখন	-5651
▁উদ্বোধন	-5652
▁ধুমুহাৰ	-5653
▁মুক্তিৰ	-5654
▁হাৰিকেন	-5655
▁ৰাজনীতি	-5656
▁অন্তৰ্গত	-5657
▁হোৱালৈকে	-5658
▁প্ৰতিৰক্ষা	-5659
▁দীৰ্ঘদিনীয়া	-5660
শৈ	-5661
োই	-5662
কাহ	-5663
িজৰ	-5664
ৰিছ	-5665
▁কফ	-5666
াল্ড	-5667
িপ্ট	-5668
▁গছৰ	-5669
▁দৰম	-5670
▁ধাত	-5671
▁বাঘ	-5672
▁মেছ	-5673
▁১৮৬	-5674
ভূমিত	-5675
োবাইল	-5676
▁ছবিৰ	-5677
▁পিছে	-5678
▁পুঁজ	-5679
▁শ্রে	-5680
▁১৯৭৭	-5681
▁১৯৮৩	-5682
▁উত্তম	-5683
▁কাৰণত	-5684
▁চিকাগ	-5685
▁ছিজনত	-5686
▁দলটোক	-5687
▁দেখাত	-5688
▁ধ্ৰুপ	-5689
▁বাৰ্ম	-5690
▁শিবিৰ	-5691
▁সংকেত	-5692
▁সমিতি	-5693
নিৱেশিক	-5694
▁একেদৰে	-5695
▁গাড়ীৰ	-5696
▁ড্ৰাইভ	-5697
▁তেলেংগ	-5698
▁দুৰ্গৰ	-5699
▁দৰ্শকৰ	-5700
▁পিন্ধা	-5701
▁পৰ্বতম	-5702
▁ব্যস্ত	-5703
▁সঁহাৰি	-5704
▁মাহলৈকে	-5705
▁ৱিকিপিড	-5706
▁কৰ্ণাটকৰ	-5707
▁পুৰস্কাৰ	-5708
▁প্ৰব্ৰজন	-5709
▁হাঁওফাঁও	-5710
▁উদ্দেশ্যে	-5711
▁হিন্দুস্ত	-5712
▁বিদ্যালয়ৰ	-5713
ইট	-5714
ডত	-5715
ডম	-5716
লছ	-5717
৭৫	-5718
জীৰ	-5719
থাৰ	-5720
দেহ	-5721
্বন	-5722
২০০	-5723
▁কই	-5724
াণ্ট	-5725
ার্থ	-5726
▁উঠি	-5727
▁কলক	-5728
▁বঢ়	-5729
▁হিল	-5730
ত্যাগ	-5731
ায়ণৰ	-5732
াৰ্ছে	-5733
▁আদান	-5734
▁আৰ্ম	-5735
▁এলেক	-5736
▁কেমে	-5737
▁পাতল	-5738
▁যুৱক	-5739
▁১৯৮৮	-5740
গতভাৱে	-5741
্লিষ্ট	-5742
▁গোৱাৰ	-5743
▁চিত্র	-5744
▁ডাচ্চ	-5745
▁তদন্ত	-5746
▁থলুৱা	-5747
▁ভৰ্তি	-5748
▁ইজিপ্ত	-5749
▁উত্তৰে	-5750
▁কল্পনা	-5751
▁কুমাৰে	-5752
▁তুলিছে	-5753
▁পঞ্জাব	-5754
▁লেক্ৰছ	-5755
▁অৱস্থান	-5756
▁আন্দোলন	-5757
▁এক্সপ্ৰ	-5758
▁চালুক্য	-5759
▁দৈৰ্ঘ্য	-5760
▁মণিপুৰী	-5761
▁মন্দিৰত	-5762
▁মুখামুখ	-5763
▁উপস্থিতি	-5764
▁বন্ধুত্ব	-5765
▁সন্মানীয়	-5766
▁দৃশ্যগ্ৰহণ	-5767
▁প্ৰযুক্তিৰ	-5768
▁প্ৰিমিয়াৰ	-5769
▁মুখ্যমন্ত্ৰী	-5770
এছএ	-5771
জাহ	-5772
পান	-5773
ভাই	-5774
মাছ	-5775
াইম	-5776
াহক	-5777
েটে	-5778
▁নব	-5779
াঞ্জ	-5780
াত্র	-5781
▁ওচৰ	-5782
▁গিল	-5783
▁টুই	-5784
▁ডিফ	-5785
▁নিগ	-5786
▁নোপ	-5787
▁ভেন	-5788
াবোৰে	-5789
▁কালত	-5790
▁কাৰখ	-5791
▁টিভি	-5792
▁ভায়	-5793
▁মণ্ট	-5794
▁মূৰে	-5795
▁সমূহ	-5796
▁১৯৮৯	-5797
▁উত্তে	-5798
▁উপভোগ	-5799
▁ওকলাহ	-5800
▁দৰ্শন	-5801
▁পচন্দ	-5802
▁পাত্ৰ	-5803
▁বাঢ়ি	-5804
▁মাটিত	-5805
▁যোজনা	-5806
▁প্ৰগ্ৰ	-5807
▁ভাৰতলৈ	-5808
▁সংকল্প	-5809
▁উচ্চতাত	-5810
▁উজ্জ্বল	-5811
▁এনেধৰণৰ	-5812
▁গ্ৰেণ্ড	-5813
▁দেখিছিল	-5814
▁প্ৰচণ্ড	-5815
▁মাজভাগত	-5816
▁আত্মহত্য	-5817
▁পেছাদাৰী	-5818
▁অৰ্থনীতিৰ	-5819
▁ক্ষেত্ৰতো	-5820
▁বৈজ্ঞানিক	-5821
▁নোহোৱালৈকে	-5822
ছাক	-5823
টাত	-5824
প্প	-5825
োনা	-5826
▁খো	-5827
এক্স	-5828
নেৰে	-5829
লেৰে	-5830
▁কোঠ	-5831
▁জাৰ	-5832
▁দৌৰ	-5833
▁পলম	-5834
▁ভূপ	-5835
▁মুল	-5836
িত্যত	-5837
▁অনাৰ	-5838
▁অমৃত	-5839
▁আৱৰি	-5840
▁থোৱা	-5841
▁শৃংগ	-5842
▁১৯৬৯	-5843
▁১৯৭৬	-5844
াকাৰ্ট	-5845
▁অংশটো	-5846
▁উপনদী	-5847
▁গ্ৰীণ	-5848
▁ঘোঁৰা	-5849
▁টেবুল	-5850
▁দ্বৈত	-5851
▁ধ্যান	-5852
▁নায়ক	-5853
▁মহোৎস	-5854
▁মুদ্র	-5855
▁মেৰাম	-5856
▁শ্ৰেণ	-5857
▁সংজ্ঞ	-5858
▁সূচনা	-5859
ায়েন্স	-5860
▁ইউৰোপত	-5861
▁গাহৰিৰ	-5862
▁ছিনেটৰ	-5863
▁ধৰিছিল	-5864
▁পৌৰনগৰ	-5865
▁বিচাৰক	-5866
▁বিষয়ক	-5867
▁ইত্যাদি	-5868
▁গৱেষণাৰ	-5869
▁বিজ্ঞাপন	-5870
▁সন্মিলনত	-5871
▁অসন্তুষ্ট	-5872
▁স্বতন্ত্ৰ	-5873
▁সম্বন্ধীয়	-5874
পদ	-5875
তেন	-5876
বোধ	-5877
ুকৰ	-5878
েনা	-5879
▁আখ	-5880
▁উজ	-5881
▁ঘে	-5882
▁৮৫	-5883
াগাৰ	-5884
ীকৃত	-5885
ুৰাই	-5886
েটিভ	-5887
্রমণ	-5888
▁আনে	-5889
▁টোপ	-5890
▁লাল	-5891
▁সাল	-5892
▁হাস	-5893
▁হুম	-5894
▁অতীত	-5895
▁আজিৰ	-5896
▁তললৈ	-5897
▁তেজৰ	-5898
▁নিজা	-5899
▁বোমা	-5900
▁মছজি	-5901
▁মূলৰ	-5902
▁লাভৰ	-5903
▁সভাত	-5904
▁সুৰা	-5905
▁১৯৫০	-5906
▁আহমেদ	-5907
▁ইহুদী	-5908
▁চণ্ডী	-5909
▁নিষেধ	-5910
▁বতাহৰ	-5911
▁সাৰ্ব	-5912
▁হাৰ্ড	-5913
▁আদালতত	-5914
▁ইউৰোপৰ	-5915
▁ওপৰেৰে	-5916
▁নিয়মৰ	-5917
▁পলায়ন	-5918
▁ভিয়েট	-5919
▁মিউজিক	-5920
▁আত্মীয়	-5921
▁পৌৰনগৰৰ	-5922
▁মানদণ্ড	-5923
▁স্থানলৈ	-5924
▁বস্তুবোৰ	-5925
▁বানপানীৰ	-5926
▁নিয়ন্ত্র	-5927
▁অন্তর্ভুক্ত	-5928
কিঅ	-5929
টিৰ	-5930
পাক	-5931
হৰণ	-5932
্নৰ	-5933
চিতা	-5934
ুদ্ধ	-5935
্টিক	-5936
▁আৰৱ	-5937
▁তৰল	-5938
▁পশু	-5939
▁পিক	-5940
▁বলৰ	-5941
▁বৰ্	-5942
▁ভাত	-5943
▁লেপ	-5944
▁শৌচ	-5945
▁১৮৮	-5946
▁৪০০	-5947
দ্বাৰ	-5948
পুত্ৰ	-5949
শ্যনৰ	-5950
িয়াল	-5951
▁আলেক	-5952
▁জ্বল	-5953
▁নিকট	-5954
▁পলাই	-5955
▁ফাৰ্	-5956
▁ভৰিৰ	-5957
▁ওপৰলৈ	-5958
▁কাৰ্ট	-5959
▁পল্লৱ	-5960
▁সামূহ	-5961
▁ৰেটিং	-5962
▁কৰিছোঁ	-5963
▁গান্ধী	-5964
▁ঘণ্টাত	-5965
▁স্পৰ্শ	-5966
▁উৎকৃষ্ট	-5967
▁কাউণ্টি	-5968
▁দুগৰাকী	-5969
▁প্ৰগ্ৰাম	-5970
▁ঔপনিৱেশিক	-5971
▁কাৰ্যসূচীৰ	-5972
▁খেলুৱৈসকলৰ	-5973
▁চিত্ৰনাট্য	-5974
▁প্ৰাদুৰ্ভাৱ	-5975
▁অস্ত্ৰোপচাৰৰ	-5976
ঃস	-5977
কলা	-5978
খিত	-5979
গ্ধ	-5980
পথৰ	-5981
ল্য	-5982
াধন	-5983
▁এজ	-5984
গড়ৰ	-5985
দীঘল	-5986
সংগত	-5987
ুকাৰ	-5988
্বতী	-5989
▁যাদ	-5990
▁যান	-5991
জ্জিত	-5992
ত্তীশ	-5993
মুক্ত	-5994
▁আচাৰ	-5995
▁কৰাই	-5996
▁জাতি	-5997
▁ধর্ম	-5998
▁নীলা	-5999
▁ভাবে	-6000
▁হাতে	-6001
স্কাৰৰ	-6002
াস্কাৰ	-6003
িক্ষেপ	-6004
▁নাথাক	-6005
▁বাৰাণ	-6006
▁ভূমিক	-6007
▁ষ্টেন	-6008
▁সংঘাত	-6009
▁কেথলিক	-6010
▁থাকিলে	-6011
▁পুনৰাব	-6012
▁বৰ্ধিত	-6013
▁সাংবাদ	-6014
▁স্মাৰক	-6015
▁উচ্চতাৰ	-6016
▁কৰ্মচাৰ	-6017
▁জনাইছে৷	-6018
▁প্ৰদানৰ	-6019
▁বিক্ৰীৰ	-6020
▁ৰূপায়ণ	-6021
▁অপাৰেটিং	-6022
▁উপত্যকাৰ	-6023
▁জনজাতীয়	-6024
▁পৰিয়ালে	-6025
▁স্মৃতিসৌ	-6026
▁অর্থনৈতিক	-6027
▁ৰিপাব্লিকান	-6028
কণ	-6029
খাৰ	-6030
বিক	-6031
লাত	-6032
িলী	-6033
ুনে	-6034
ুলৰ	-6035
োৰত	-6036
ঙ্গা	-6037
ত্ৰী	-6038
াধাৰ	-6039
ীৱিত	-6040
োচাক	-6041
▁কেপ	-6042
▁ডিপ	-6043
▁বাট	-6044
▁ভাৱ	-6045
▁হওক	-6046
▁হিত	-6047
▁হেড	-6048
ঞ্জাৰ	-6049
▁কানা	-6050
▁চুলি	-6051
▁ঠাইৰ	-6052
▁দোষী	-6053
▁বি১২	-6054
▁মিলি	-6055
▁হাতৰ	-6056
▁হুছে	-6057
▁১৯৬৪	-6058
▁১৯৭৫	-6059
▁১৯৮৫	-6060
▁অফিচত	-6061
▁অৱদান	-6062
▁ছিণ্ড	-6063
▁সংসদৰ	-6064
▁সহযোগ	-6065
▁আগ্ৰহী	-6066
▁আৰোগ্য	-6067
▁আৰ্থিক	-6068
▁কুমাৰৰ	-6069
▁ছাউণ্ড	-6070
▁তেতিয়	-6071
▁তৎক্ষণ	-6072
▁দিয়াত	-6073
▁স্থিতি	-6074
▁অনুগামী	-6075
▁উৎপাদিত	-6076
▁খেলপথাৰ	-6077
▁প্ৰভাৱৰ	-6078
▁প্ৰয়াস	-6079
▁ব্ৰঞ্জৰ	-6080
▁অতিবাহিত	-6081
▁ডেলিভাৰী	-6082
▁ব্ৰাহ্মণ	-6083
▁মুখামুখি	-6084
▁মূল্যৱান	-6085
▁সঠিকভাৱে	-6086
▁সংগ্ৰহালয়	-6087
▁মালিকানাধীন	-6088
ডো	-6089
তক	-6090
মো	-6091
ীম	-6092
৯৯	-6093
কাই	-6094
চনৰ	-6095
চেন	-6096
▁ডু	-6097
ধৰ্ম	-6098
বিভা	-6099
স্থল	-6100
াচাৰ	-6101
াতিক	-6102
▁একৰ	-6103
▁খনন	-6104
▁চেপ	-6105
▁দমন	-6106
▁ফেল	-6107
▁মিট	-6108
ৰাত্ৰ	-6109
▁গঠনৰ	-6110
▁টকিঅ	-6111
▁নষ্ট	-6112
▁নেতি	-6113
▁নৰ্ম	-6114
▁পৰিল	-6115
▁বাৰি	-6116
▁সাফল	-6117
▁অষ্টম	-6118
▁আৱশ্য	-6119
▁একাদশ	-6120
▁কমিউন	-6121
▁জ্বৰৰ	-6122
▁দেৱাল	-6123
▁পতাকা	-6124
▁পানীত	-6125
▁ভূমিৰ	-6126
▁মিষ্ট	-6127
াধিকাৰী	-6128
▁অনুবাদ	-6129
▁এইসমূহ	-6130
▁খুচুৰা	-6131
▁দেশখনৰ	-6132
▁পৰিসৰৰ	-6133
▁বিন্দু	-6134
▁মাৰাঠী	-6135
▁সিহঁতে	-6136
▁হাইস্ক	-6137
▁থাকোঁতে	-6138
▁পাৰ্শ্ব	-6139
▁পুৰোহিত	-6140
▁ভূমিকাত	-6141
চিয়েশ্যন	-6142
▁অধিনায়ক	-6143
▁শিলালিপি	-6144
▁সন্ন্যাস	-6145
▁সামগ্ৰিক	-6146
▁নিষেধাজ্ঞ	-6147
▁বিচাৰিবলৈ	-6148
▁সংশ্লিষ্ট	-6149
▁হস্তক্ষেপ	-6150
▁আভ্যন্তৰীণ	-6151
▁খেলুৱৈসকলক	-6152
▁দ্বীপপুঞ্জ	-6153
▁চেম্পিয়নশ্বিপৰ	-6154
েভ	-6155
’,	-6156
চুম	-6157
ফিক	-6158
্নি	-6159
৫০০	-6160
▁অৰ	-6161
▁ধূ	-6162
▁মঠ	-6163
ংগিক	-6164
চাইট	-6165
ষ্টন	-6166
েলাৰ	-6167
▁ইহঁ	-6168
▁উৰু	-6169
▁চমু	-6170
▁ছুট	-6171
▁জোৱ	-6172
▁ফাল	-6173
▁সমন	-6174
▁সমূ	-6175
▁৩০০	-6176
কলাপৰ	-6177
ম্যাদ	-6178
াপত্ৰ	-6179
িয়েন	-6180
▁এখনত	-6181
▁এলাৰ	-6182
▁পইচা	-6183
▁পেশী	-6184
▁বছৰি	-6185
▁বাহন	-6186
▁লাইট	-6187
▁শনিব	-6188
▁১৯৪৮	-6189
▁ক্ৰমে	-6190
▁খোৱাৰ	-6191
▁দুর্গ	-6192
▁মেয়ৰ	-6193
▁ম্যান	-6194
▁সংগ্র	-6195
▁উন্নতি	-6196
▁কমনৱেল	-6197
▁কৌশলগত	-6198
▁গাঁথনি	-6199
▁ঘণ্টাৰ	-6200
▁যোজনাৰ	-6201
▁স্ক্ৰী	-6202
▁হুমায়	-6203
▁ৰিয়েল	-6204
▁ক্ষমতাৰ	-6205
▁চেন্নাই	-6206
▁দৃষ্টিশ	-6207
▁নিক্ষেপ	-6208
▁নিয়মিত	-6209
▁প্ৰথমজন	-6210
▁বিস্তাৰ	-6211
▁সংস্থাই	-6212
▁অধিষ্ঠিত	-6213
▁কৃষকসকলৰ	-6214
▁গণৰাজ্যৰ	-6215
▁নেতিবাচক	-6216
▁পৰীক্ষাত	-6217
▁বিস্ফোৰণ	-6218
▁ব্যৱধানত	-6219
▁ব্ৰাজিলৰ	-6220
▁মনোৰঞ্জন	-6221
▁পশ্চিমীয়া	-6222
▁স্বয়ংক্ৰিয়	-6223
▁প্ৰয়োজনীয়তা	-6224
উল	-6225
৩৩	-6226
ছনৰ	-6227
ফ্ৰ	-6228
বিল	-6229
মাই	-6230
াহী	-6231
ক্ষী	-6232
ঞ্জা	-6233
ালাই	-6234
িপাত	-6235
▁ডাব	-6236
▁দলং	-6237
ক্ষ্ম	-6238
▁এম্ব	-6239
▁কোঠা	-6240
▁ক্ৰছ	-6241
▁বিংশ	-6242
▁বেয়	-6243
▁ভাবি	-6244
▁মেৰু	-6245
▁লিখন	-6246
▁শীতল	-6247
▁সূচা	-6248
▁ইণ্ডো	-6249
▁খেলাৰ	-6250
▁চলাচল	-6251
▁বৃত্ত	-6252
▁মধ্যম	-6253
▁মাৰ্ট	-6254
▁শব্দৰ	-6255
▁শ্বাস	-6256
াগৰিষ্ঠ	-6257
▁উচ্চতম	-6258
▁দিনটোৰ	-6259
▁ব্যয়ৰ	-6260
▁লণ্ডনত	-6261
▁আয়োজিত	-6262
▁পদত্যাগ	-6263
▁পিছফালে	-6264
▁বন্যপ্ৰ	-6265
▁বিপদজনক	-6266
▁সন্তানৰ	-6267
▁স্মাৰ্ট	-6268
তাত্ত্বিক	-6269
▁প্রস্তাৱ	-6270
▁বাসস্থান	-6271
▁মুম্বাইৰ	-6272
▁বিস্তাৰিত	-6273
▁অনুপ্ৰাণিত	-6274
▁সংস্পৰ্শলৈ	-6275
▁বেক্টেৰিয়া	-6276
▁অষ্ট্ৰেলিয়া	-6277
থন	-6278
ধি	-6279
২৬	-6280
▁ঊ	-6281
ইনৰ	-6282
ঠিত	-6283
হিৰ	-6284
াৰু	-6285
ীৰত	-6286
ুঁত	-6287
ুইন	-6288
েৰণ	-6289
্টে	-6290
▁ধৰ	-6291
চিআই	-6292
িছোঁ	-6293
িশ্য	-6294
▁গোব	-6295
▁ৱাৰ	-6296
গোলিক	-6297
ৰ্ণাম	-6298
▁কণ্ট	-6299
▁চাইক	-6300
▁পেকে	-6301
▁মানে	-6302
▁১৯৮৬	-6303
▁ৰঙীন	-6304
▁ৰাজা	-6305
▁কাপুৰ	-6306
▁দুগুণ	-6307
▁শস্যৰ	-6308
▁শৰীৰত	-6309
ৰদ্বাৰা	-6310
▁দুৰ্ঘট	-6311
▁সংলগ্ন	-6312
▁সূচাংক	-6313
▁অধিবক্ত	-6314
▁চুলতানী	-6315
▁টুৰ্ণাম	-6316
▁প্রদর্শ	-6317
▁ব্ৰাজিল	-6318
▁জলসিঞ্চন	-6319
▁দেখুৱায়	-6320
▁পেৰিয়াৰ	-6321
▁প্রতিষ্ঠ	-6322
▁বিৰোধিতা	-6323
▁সন্ধিয়া	-6324
▁নিৰ্দেশনা	-6325
▁ব্যৱসায়ী	-6326
▁সেনাবাহিন	-6327
▁স্থাপত্যৰ	-6328
▁ৰাষ্ট্ৰসং	-6329
▁প্রতিযোগিত	-6330
▁বিষয়াসকলৰ	-6331
▁ব্যাপকভাৱে	-6332
▁স্বাস্থ্যৰ	-6333
▁ছুইজাৰলেণ্ডৰ	-6334
পো	-6335
ংলা	-6336
ামো	-6337
ুলী	-6338
▁কট	-6339
▁গহ	-6340
গীয়	-6341
পতিৰ	-6342
িনেল	-6343
েৰীৰ	-6344
▁আচল	-6345
▁ছেট	-6346
▁ছোভ	-6347
▁দাগ	-6348
▁নীল	-6349
▁ৰোধ	-6350
▁ৰোম	-6351
ঞ্জলি	-6352
পুৰুষ	-6353
শক্তি	-6354
শাৰীৰ	-6355
ৰিবলৈ	-6356
▁অপৰি	-6357
▁কমকৈ	-6358
▁চালক	-6359
▁দত্ত	-6360
▁পালে	-6361
▁যোগে	-6362
▁হাৰত	-6363
ম্যাদী	-6364
▁আদৰণি	-6365
▁এইটোও	-6366
▁চাৰ্ট	-6367
▁পুলিচ	-6368
▁প্ৰেছ	-6369
▁বিপ্ল	-6370
▁বৃষ্ট	-6371
▁হ্ৰদৰ	-6372
▁ৰায়ে	-6373
▁ৰিচাৰ	-6374
▁উষ্ণতা	-6375
▁এণ্টাৰ	-6376
▁চলোৱাৰ	-6377
▁পিন্ধে	-6378
▁পৃথিৱী	-6379
▁ফুটবলৰ	-6380
▁বাজেটৰ	-6381
▁মোবাইল	-6382
▁উদ্ভিদৰ	-6383
▁টেক্সাছ	-6384
▁দুখীয়া	-6385
▁প্ৰণয়ন	-6386
▁ভিক্টোৰ	-6387
▁আফ্ৰিকান	-6388
▁কেন্দ্ৰৰ	-6389
▁দুয়োটাই	-6390
▁যোগাযোগৰ	-6391
▁ৰাজস্থান	-6392
▁পাকিস্তান	-6393
▁বিচ্ছিন্ন	-6394
▁কোম্পানীটো	-6395
▁বিশ্বব্যাপী	-6396
পল	-6397
৯০	-6398
চিএ	-6399
টোও	-6400
বেত	-6401
ল্ফ	-6402
সাম	-6403
ুলভ	-6404
ৰাছ	-6405
▁উশ	-6406
▁থৈ	-6407
▁পছ	-6408
চাৰে	-6409
ঞ্জী	-6410
দাতা	-6411
ব্যৰ	-6412
মেনৰ	-6413
াহাৰ	-6414
ৰায়	-6415
▁কুট	-6416
▁কেট	-6417
▁পেক	-6418
▁বোধ	-6419
▁লিন	-6420
ক্ষিক	-6421
▁উদয়	-6422
▁কাটি	-6423
▁খেলি	-6424
▁টাইপ	-6425
▁পৰিশ	-6426
▁মূৰত	-6427
▁লাগি	-6428
▁হাউছ	-6429
▁১৯৭৮	-6430
▁১৯৮১	-6431
লৰক্ষক	-6432
িয়ালৈ	-6433
্রীষ্ট	-6434
▁অশোকৰ	-6435
▁আকাৰৰ	-6436
▁আলেকজ	-6437
▁উপকৃত	-6438
▁চিকাৰ	-6439
▁টেনিছ	-6440
▁দুৱাৰ	-6441
▁বাগিচ	-6442
▁ভগ্নী	-6443
▁শাখাত	-6444
▁ৰক্ষণ	-6445
ব্যৱহাৰ	-6446
▁অনুজ্ঞ	-6447
▁এলেকাৰ	-6448
▁কাউন্স	-6449
▁খুন্দা	-6450
▁দোকানত	-6451
▁বৈষ্ণৱ	-6452
▁মাত্ৰা	-6453
▁সম্প্র	-6454
▁ইউনিয়ন	-6455
▁ইজৰাইলৰ	-6456
▁গীৰ্জাৰ	-6457
▁গ্ৰাহকৰ	-6458
▁প্রশংসা	-6459
▁বিচ্ছেদ	-6460
▁শীতকালত	-6461
▁সেনাপতি	-6462
▁অধিকাংশই	-6463
▁দেশসমূহত	-6464
▁বহুলভাৱে	-6465
▁বিনিময়ত	-6466
▁ব্ৰিটিছৰ	-6467
▁মুম্বাইত	-6468
▁প্ৰতিফলিত	-6469
▁বাস্কেটবল	-6470
▁জনপ্ৰিয়তা	-6471
▁সংখ্যাগৰিষ্ঠ	-6472
▁ব্যক্তিগতভাৱে	-6473
থে	-6474
অনু	-6475
পেন	-6476
মনৰ	-6477
িণৰ	-6478
োটা	-6479
টোলৈ	-6480
থনিৰ	-6481
ন্সৰ	-6482
াৰ্ধ	-6483
াৱলী	-6484
ৃত্ব	-6485
▁কমি	-6486
▁কুচ	-6487
▁ঘটে	-6488
▁চাম	-6489
▁টাক	-6490
▁বেই	-6491
▁ৰেজ	-6492
সাময়	-6493
াবোৰত	-6494
িলৈকে	-6495
▁অভিব	-6496
▁ছবিত	-6497
▁জুৰি	-6498
▁ডিএছ	-6499
▁নন্দ	-6500
▁পাতি	-6501
▁মায়	-6502
▁ৰাহি	-6503
াগৰাকী	-6504
িয়ানৰ	-6505
ুৱাৰীৰ	-6506
▁ওলোৱা	-6507
▁তোমাৰ	-6508
▁সংক্র	-6509
▁স্তৰত	-6510
▁পাৰ্চী	-6511
▁পৃথ্বী	-6512
▁ফাউণ্ড	-6513
▁বাংগাল	-6514
▁ব্যৰ্থ	-6515
▁মল্লযু	-6516
▁সাৱধান	-6517
▁সুৰক্ষ	-6518
▁নোৱাৰিব	-6519
▁পশ্চিমব	-6520
▁বিশ্বতে	-6521
▁ভৱিষ্যত	-6522
▁মিশ্ৰিত	-6523
▁ছোভিয়েট	-6524
▁প্ৰগ্ৰেম	-6525
▁প্ৰজন্মৰ	-6526
▁প্ৰাৰ্থী	-6527
▁বিজ্ঞানৰ	-6528
▁প্ৰতিদিনে	-6529
▁প্ৰদৰ্শিত	-6530
▁শিলালিপিত	-6531
▁স্মৃতিসৌধ	-6532
▁পৰ্য্যায়ত	-6533
▁নিশ্চিতভাৱে	-6534
▁ইণ্ডোনেছিয়াৰ	-6535
ংখ	-6536
ণু	-6537
নম	-6538
্গ	-6539
লিন	-6540
িদা	-6541
োড়	-6542
োতি	-6543
▁ড০	-6544
▁৪৪	-6545
কলাৰ	-6546
জনীন	-6547
ধাৰণ	-6548
সভাত	-6549
সলনি	-6550
েত্র	-6551
▁এইছ	-6552
▁ঘটি	-6553
▁পিৰ	-6554
▁ভিজ	-6555
▁ভেট	-6556
▁ভৰা	-6557
▁সুন	-6558
সমূহো	-6559
িকালি	-6560
▁আয়ু	-6561
▁এচিড	-6562
▁খনিজ	-6563
▁গুগল	-6564
▁গেছৰ	-6565
▁চলিব	-6566
▁নাকচ	-6567
▁ফিফা	-6568
▁মৰ্য	-6569
▁লিংগ	-6570
▁ষ্টে	-6571
▁সঙ্গ	-6572
ছাত্ৰী	-6573
দ্বীপৰ	-6574
িপূৰ্ণ	-6575
▁কথাটো	-6576
▁গীতটো	-6577
▁গোন্ধ	-6578
▁জীৱিত	-6579
▁থেৰাপ	-6580
▁নাট্য	-6581
▁ব্ৰাউ	-6582
▁সুৰাপ	-6583
▁সোমাই	-6584
▁২০১৮ৰ	-6585
▁ৰায়ৰ	-6586
▁ইমানেই	-6587
▁কাৰ্ডৰ	-6588
▁কেইদিন	-6589
▁টুকুৰা	-6590
▁প্রতিৰ	-6591
▁পৰ্যটক	-6592
▁পৰ্য্য	-6593
▁সহায়ৰ	-6594
▁আগশাৰীৰ	-6595
▁গাড়ীখন	-6596
▁দেওবাৰে	-6597
▁নিষ্কাশ	-6598
▁মণিপুৰৰ	-6599
▁মেক্সিক	-6600
▁সামূহিক	-6601
▁সুকীয়া	-6602
▁স্পেইনৰ	-6603
াৰ্টমেণ্ট	-6604
▁প্ৰশাসনৰ	-6605
▁অট্টালিকা	-6606
▁ৰক্তক্ষৰণ	-6607
▁ৱাশ্বিংটন	-6608
▁দৃষ্টিভংগী	-6609
▁প্ৰভাৱশালী	-6610
▁উন্নয়নমূলক	-6611
এচ	-6612
ণে	-6613
২২	-6614
চিল	-6615
ঠিৰ	-6616
বুক	-6617
ষেধ	-6618
ানো	-6619
▁গজ	-6620
▁পৌ	-6621
▁হক	-6622
তাকে	-6623
ষ্ণৰ	-6624
▁খাল	-6625
▁গুড	-6626
▁ড্র	-6627
▁নোট	-6628
▁ফ্র	-6629
▁বেৰ	-6630
ষ্টিক	-6631
▁আঠটা	-6632
▁চাপৰ	-6633
▁জিএছ	-6634
▁দিলে	-6635
▁দেৱত	-6636
▁বাৰ্	-6637
▁সম্ভ	-6638
▁১৯৬৬	-6639
চিয়েল	-6640
াদেশিক	-6641
▁অৱৰোধ	-6642
▁আমদান	-6643
▁ইঞ্চি	-6644
▁ইনফ্ল	-6645
▁খেতিৰ	-6646
▁নিশ্চ	-6647
▁প্ৰৱণ	-6648
▁বহুতে	-6649
▁শিৱাজ	-6650
▁সৈতেও	-6651
▁হঠাতে	-6652
সাময়িক	-6653
▁আৱৰ্জন	-6654
▁উলিওৱা	-6655
▁কানাডা	-6656
▁প্ৰচুৰ	-6657
▁বিভাগত	-6658
▁ভেকচিন	-6659
▁লিখিছে	-6660
▁সামৰ্থ	-6661
▁হাইপাৰ	-6662
▁হাতেৰে	-6663
▁দক্ষিণৰ	-6664
▁নাৰায়ণ	-6665
▁ফেডাৰেল	-6666
▁বিন্যাস	-6667
▁ব্যঞ্জন	-6668
▁কৰ্ণাটকী	-6669
▁পুনৰুজ্জ	-6670
▁প্রস্তুত	-6671
▁ব্যায়াম	-6672
▁প্ৰস্তুতি	-6673
▁মন্ত্ৰালয়	-6674
গৈ	-6675
পৃ	-6676
উডৰ	-6677
জিং	-6678
বেৰ	-6679
মছত	-6680
য়ড	-6681
লেট	-6682
েনৰ	-6683
্ছত	-6684
্ৰা	-6685
ৱলী	-6686
▁উচ	-6687
▁চপ	-6688
▁ছৌ	-6689
▁নো	-6690
▁মচ	-6691
▁ৰথ	-6692
ণ্টন	-6693
ব্ৰে	-6694
য়াই	-6695
▁আনৰ	-6696
▁কুপ	-6697
▁গাখ	-6698
▁মৰি	-6699
▁লেই	-6700
▁স্ল	-6701
▁হেৰ	-6702
াপুৰৰ	-6703
াবাদৰ	-6704
িত্যৰ	-6705
▁আবৃত	-6706
▁পঠিও	-6707
▁বৈঠক	-6708
▁যোগৰ	-6709
▁সজাগ	-6710
▁১৯৭৪	-6711
▁ইচ্ছা	-6712
▁কৃষিৰ	-6713
▁বুটাম	-6714
▁মছজিদ	-6715
▁মূৰ্ত	-6716
▁লিপ্ত	-6717
▁শতিকা	-6718
▁শ্বেত	-6719
▁হাইদৰ	-6720
▁আমেৰিক	-6721
▁ইলিনয়	-6722
▁এইবোৰৰ	-6723
▁কনিষ্ঠ	-6724
▁দূৰত্ব	-6725
▁পৰিষদে	-6726
▁বিধেয়	-6727
▁মহাদেশ	-6728
▁মহাৰাজ	-6729
▁মাইকেল	-6730
▁স্বায়	-6731
▁উন্মোচন	-6732
▁এইটোৱেই	-6733
▁পৰিবহণৰ	-6734
▁বিদ্যুত	-6735
▁ভৌগোলিক	-6736
▁মহাসাগৰ	-6737
▁মাধ্যমৰ	-6738
▁মিডিয়া	-6739
▁অধ্যয়নৰ	-6740
▁প্ৰকাশিত	-6741
▁প্ৰতিবেদ	-6742
▁সাংবাদিক	-6743
▁হিমালয়ৰ	-6744
▁ৰাছিয়ান	-6745
▁দেখুৱাইছে	-6746
▁পাঠ্যক্ৰম	-6747
▁বাৰ্তালাপ	-6748
▁লক্ষণসমূহ	-6749
▁ব্যৱস্থাপন	-6750
▁ইলেক্ট্ৰনিক	-6751
▁গ্ৰীষ্মকালত	-6752
▁বাদ্যযন্ত্ৰ	-6753
মই	-6754
কূল	-6755
ণ্য	-6756
দাত	-6757
নেল	-6758
মেট	-6759
লেও	-6760
াচী	-6761
ৰ্ফ	-6762
▁নল	-6763
▁বচ	-6764
▁বদ	-6765
▁হত	-6766
▁হৰ	-6767
ত্বৰ	-6768
বোৰো	-6769
বৰ্ণ	-6770
হীনত	-6771
▁অংক	-6772
▁চৰ্	-6773
▁ছটা	-6774
▁ছাহ	-6775
▁নাছ	-6776
▁ভিৰ	-6777
▁যীশ	-6778
▁শিৰ	-6779
▁হাম	-6780
▁ৰেফ	-6781
কাৰীক	-6782
ট্ৰেক	-6783
বিহীন	-6784
িলিপি	-6785
▁ক্ষী	-6786
▁ফুলৰ	-6787
▁ব্লক	-6788
▁মিঠা	-6789
▁যাওক	-6790
▁সংসদ	-6791
▁সভ্য	-6792
প্ৰধান	-6793
সমূহলৈ	-6794
▁আৱদ্ধ	-6795
▁কাঢ়ি	-6796
▁কান্দ	-6797
▁ক্ষমত	-6798
▁খাবলৈ	-6799
▁ডেভেল	-6800
▁পৰিসৰ	-6801
▁বঁটাৰ	-6802
▁বাংলা	-6803
▁বাৰ্ল	-6804
▁বিদ্র	-6805
▁ভুক্ত	-6806
▁সমবেত	-6807
▁এপ্লিক	-6808
▁গীৰ্জা	-6809
▁ছত্তীশ	-6810
▁ভয়ংকৰ	-6811
▁মৃতদেহ	-6812
▁শ্বপিং	-6813
▁কোনোবাই	-6814
▁ধাৰণাটো	-6815
▁পিছুৱাই	-6816
▁বিলুপ্ত	-6817
▁মাৰিছিল	-6818
▁মুখ্যতঃ	-6819
▁সেইবাবে	-6820
▁অক্টোবৰৰ	-6821
▁ত্ৰিপুৰা	-6822
▁প্ৰণালীৰ	-6823
▁ভুক্তভোগ	-6824
▁হতাশাজনক	-6825
▁নিউয়ৰ্কৰ	-6826
▁বৃষ্টিপাত	-6827
▁অনুষ্ঠানটোৰ	-6828
▁অস্ত্ৰোপচাৰ	-6829
▁দাক্ষিণাত্য	-6830
▁নিয়ন্ত্ৰণৰ	-6831
▁শ্ৰদ্ধাঞ্জলি	-6832
এক	-6833
ছ্	-6834
বছ	-6835
৩৫	-6836
কান	-6837
হাম	-6838
াউল	-6839
াতি	-6840
ুৰু	-6841
▁এভ	-6842
▁মী	-6843
বাণী	-6844
যোগে	-6845
াইডে	-6846
াকেশ	-6847
াৰিঅ	-6848
োনাৰ	-6849
▁আখৰ	-6850
▁আৰা	-6851
▁চেৰ	-6852
▁ছিৰ	-6853
▁ছেম	-6854
▁নান	-6855
▁বিগ	-6856
▁বুৰ	-6857
▁৩টা	-6858
▁ৰিল	-6859
বিন্দ	-6860
াৰতকৈ	-6861
▁উলংঘ	-6862
▁ডিফে	-6863
▁পৌৰহ	-6864
▁প্ৰি	-6865
▁পৰ্দ	-6866
▁বজাত	-6867
▁১৯৬৫	-6868
াপূৰ্ণ	-6869
▁চোপ্ৰ	-6870
▁বিনোদ	-6871
▁লেটিন	-6872
▁স্ক্ৰ	-6873
েণ্ডাৰৰ	-6874
▁এসময়ত	-6875
▁ড্ৰাগছ	-6876
▁নিখুঁত	-6877
▁বিষ্ণু	-6878
▁মূল্যত	-6879
▁যিবোৰৰ	-6880
▁স্কোৱা	-6881
▁কানাড়া	-6882
▁কৰিছিলো	-6883
▁বিপ্লৱৰ	-6884
▁শ্ৰেণীত	-6885
▁স্নায়ু	-6886
▁কাহিনীটো	-6887
▁কেন্দ্ৰত	-6888
▁পৰ্তুগীজ	-6889
▁বাণিজ্যৰ	-6890
▁ডিচেম্বৰৰ	-6891
▁নিৰ্ভৰশীল	-6892
▁পৌৰহিত্যত	-6893
▁সমসাময়িক	-6894
▁সম্পত্তিৰ	-6895
▁হিংসাত্মক	-6896
▁বন্যপ্ৰাণী	-6897
▁প্ৰক্ৰিয়াৰ	-6898
▁পুনৰুজ্জীৱিত	-6899
",	-6900
টী	-6901
৪৫	-6902
ঘাট	-6903
নগৰ	-6904
ফোন	-6905
মতী	-6906
মাহ	-6907
ষাণ	-6908
াচু	-6909
িৰু	-6910
োপা	-6911
ৰেই	-6912
▁নু	-6913
▁৩৩	-6914
▁৬৫	-6915
▁৭৪	-6916
কৰ্ত	-6917
শাসন	-6918
াশিত	-6919
িচ্ছ	-6920
েইনে	-6921
্ৰাৱ	-6922
▁কপি	-6923
▁চলা	-6924
▁জাগ	-6925
▁দৰা	-6926
▁পুড	-6927
▁পেড	-6928
▁বাব	-6929
▁বেড	-6930
▁লুট	-6931
▁২টা	-6932
▁ৰিচ	-6933
স্থলী	-6934
স্থাৰ	-6935
▁অস্প	-6936
▁আটলা	-6937
▁কাৰো	-6938
▁ভাড়	-6939
▁মাছৰ	-6940
▁শোভা	-6941
▁সাধন	-6942
▁হোলী	-6943
▁১৯৪৯	-6944
▁১৯৬৭	-6945
▁১৯৬৮	-6946
▁অক্ষম	-6947
▁কাইলৈ	-6948
▁তাৰকা	-6949
▁থাকিল	-6950
▁নিষ্ঠ	-6951
▁পক্ষৰ	-6952
▁প্ৰাগ	-6953
▁বাহাদ	-6954
▁বিকিৰ	-6955
▁মিচিগ	-6956
▁লগোৱা	-6957
ৰাজ্যিক	-6958
▁এলেকাত	-6959
▁চাৰিজন	-6960
▁চাৰ্লছ	-6961
▁পানীয়	-6962
▁বন্দুক	-6963
▁বাস্তৱ	-6964
▁বৃত্তি	-6965
▁ভিতৰলৈ	-6966
▁মুছলিম	-6967
▁ষ্ট্ৰী	-6968
▁সময়সী	-6969
▁সম্পদৰ	-6970
▁সূচায়	-6971
▁সৰবৰাহ	-6972
▁হাইড্ৰ	-6973
▁উপন্যাস	-6974
▁খ্রীষ্ট	-6975
▁ছাৰ্ভিচ	-6976
▁পুলাকেশ	-6977
▁বিভাজনৰ	-6978
▁বিষয়টো	-6979
▁সংখ্যাৰ	-6980
▁অধ্যয়নত	-6981
▁অস্তিত্ব	-6982
▁কংগ্ৰেছৰ	-6983
▁নৱেম্বৰৰ	-6984
▁পৰিৱর্তন	-6985
▁মালয়ালম	-6986
▁জন্মগ্ৰহণ	-6987
▁প্লেটফৰ্ম	-6988
▁বিপদাশংকা	-6989
▁গুৰুতৰভাৱে	-6990
▁পৰ্যালোচনা	-6991
▁বিদ্যালয়ত	-6992
▁ইনষ্টাকাৰ্ট	-6993
▁পুনৰাবৃত্তি	-6994
টিছ	-6995
দেউ	-6996
নতম	-6997
পোছ	-6998
ফলৰ	-6999
ম্য	-7000
হাত	-7001
িটৰ	-7002
ৰিং	-7003
▁অদ	-7004
▁চৈ	-7005
▁৬৪	-7006
গতিক	-7007
প্লে	-7008
িজেন	-7009
ীতিৰ	-7010
োৰ্ট	-7011
্যুত	-7012
▁আৰব	-7013
▁এপল	-7014
▁কাঁ	-7015
▁কুৰ	-7016
▁গাৰ	-7017
▁ঘটা	-7018
▁চুই	-7019
▁ছিড	-7020
▁ধনী	-7021
▁লিভ	-7022
▁সতী	-7023
▁হাব	-7024
কাশ্ম	-7025
পেক্ষ	-7026
স্পতি	-7027
▁অজ্ঞ	-7028
▁অসমৰ	-7029
▁আছোঁ	-7030
▁ইনিং	-7031
▁উঠিব	-7032
▁উৎসৰ	-7033
▁জানে	-7034
▁প্ৰট	-7035
▁মেজৰ	-7036
▁হিমা	-7037
▁১৯৫৭	-7038
গৰাকীক	-7039
ান্বিত	-7040
▁আকৃতি	-7041
▁আদৰ্শ	-7042
▁পেশ্ব	-7043
▁পোষ্ট	-7044
▁প্রয়	-7045
▁বাৰ্চ	-7046
▁ভক্তি	-7047
▁যিটোৰ	-7048
▁হাৰ্ট	-7049
▁অনুপাত	-7050
▁আইওৱাৰ	-7051
▁ক্ষতিৰ	-7052
▁দুয়োগ	-7053
▁নদীখনৰ	-7054
▁পোৱাটো	-7055
▁বিভাগে	-7056
▁আফ্ৰিকা	-7057
▁কিকবক্স	-7058
▁কিনিবলৈ	-7059
▁কৰ্ণাটক	-7060
▁ট্ৰেন্স	-7061
▁পিছদিনা	-7062
▁প্ৰশাসন	-7063
▁সামগ্রী	-7064
▁ৰিচাৰ্ড	-7065
▁নোৱাৰিলে	-7066
▁পুনৰুদ্ধ	-7067
▁ব্যক্তিক	-7068
▁মুহূৰ্তত	-7069
▁সন্মিলনৰ	-7070
▁আংশিকভাৱে	-7071
▁প্ৰাদেশিক	-7072
▁উত্তৰাখণ্ড	-7073
▁কাৰ্য্যকৰী	-7074
▁প্রতিষ্ঠান	-7075
▁মধ্যপ্ৰদেশৰ	-7076
▁খ্ৰীষ্টাব্দত	-7077
গছ	-7078
গ্ল	-7079
মুখ	-7080
িনক	-7081
িবত	-7082
েতে	-7083
োবৰ	-7084
ৱেই	-7085
▁কূ	-7086
▁জং	-7087
জোৰা	-7088
নন্দ	-7089
ভূতি	-7090
মানে	-7091
ানাত	-7092
িৰতা	-7093
ুল্ক	-7094
ূনতম	-7095
েইনত	-7096
ৰ্গা	-7097
▁আছো	-7098
▁আলম	-7099
▁উপা	-7100
▁এৰে	-7101
▁গণত	-7102
▁ভোজ	-7103
প্ৰতি	-7104
মিয়া	-7105
▁আগ্র	-7106
▁উশাহ	-7107
▁পাৰো	-7108
▁বচ্চ	-7109
▁বৰফৰ	-7110
েশ্যনে	-7111
▁উপকূল	-7112
▁কৌশলৰ	-7113
▁তাতকৈ	-7114
▁দলীয়	-7115
▁দেশতে	-7116
▁দৰমহা	-7117
▁পিছতো	-7118
▁পোচাক	-7119
▁প্ৰদূ	-7120
▁বাভাৰ	-7121
▁বিপণন	-7122
▁ৰোলাৰ	-7123
▁অতিশয়	-7124
▁উদ্বোধ	-7125
▁ক্লাবৰ	-7126
▁গাইছিল	-7127
▁জ্বলাই	-7128
▁তেখেতে	-7129
▁নাছিলো	-7130
▁পিন্ধি	-7131
▁পিৰিয়	-7132
▁বাৰ্তা	-7133
▁বিভাজন	-7134
▁সহকাৰী	-7135
▁সোণালী	-7136
▁অনুগ্ৰহ	-7137
▁দুবাৰকৈ	-7138
▁পাৰ্টিৰ	-7139
▁প্ৰতিজন	-7140
▁শব্দটোৰ	-7141
▁সেইবোৰে	-7142
▁সেইসমূহ	-7143
শ্বায়াৰৰ	-7144
▁সংমিশ্ৰণ	-7145
▁আগতীয়াকৈ	-7146
▁চুক্তিয়ে	-7147
▁পৃথ্বীৰাজ	-7148
▁ব্যয়বহুল	-7149
▁সাম্রাজ্য	-7150
▁ৰাজনীতিবিদ	-7151
শৰ	-7152
ষা	-7153
৬৬	-7154
৮৫	-7155
’-	-7156
কুল	-7157
টকৰ	-7158
টিউ	-7159
িতে	-7160
িলি	-7161
ৰিত	-7162
▁৭২	-7163
টেইন	-7164
ণ্টা	-7165
মাৰৰ	-7166
াপিত	-7167
ুকেই	-7168
োল্ল	-7169
▁তোম	-7170
▁পেপ	-7171
▁১৮০	-7172
ঞ্চিত	-7173
মণ্ডল	-7174
▁অশোক	-7175
▁আশীৰ	-7176
▁ইস্ক	-7177
▁চেৰা	-7178
▁দাঙি	-7179
▁বতৰৰ	-7180
▁মাইক	-7181
▁লিংক	-7182
▁শ্বে	-7183
▁সুতৰ	-7184
▁ৰজাই	-7185
াৰ্নাৰ	-7186
▁গৃহীত	-7187
▁ছিয়া	-7188
▁তুলসী	-7189
▁স্কেন	-7190
▁আদালতৰ	-7191
▁উত্তৰৰ	-7192
▁উপকূলত	-7193
▁কনফাৰে	-7194
▁কাবাদী	-7195
▁চৰকাৰক	-7196
▁জ্যোতি	-7197
▁ডিভাইচ	-7198
▁দম্পতী	-7199
▁প্ৰেমত	-7200
▁বিপক্ষ	-7201
▁মণিপুৰ	-7202
▁ৰবাৰ্ট	-7203
▁অৱশিষ্ট	-7204
▁ইন্দিৰা	-7205
▁কিলোমিট	-7206
▁দিয়াটো	-7207
▁নিদিয়ে	-7208
▁পদাৰ্থৰ	-7209
▁মাদ্ৰাজ	-7210
▁সংখ্যাল	-7211
▁সংগ্ৰাম	-7212
▁স্বেচ্ছ	-7213
▁তৎক্ষণাত	-7214
▁দীৰ্ঘদিন	-7215
▁প্ৰযোজ্য	-7216
▁প্ৰান্তত	-7217
▁পৰিয়ালত	-7218
▁বিদ্ৰোহৰ	-7219
▁বিশ্লেষণ	-7220
▁ভূমিকম্প	-7221
▁ভৱিষ্যতে	-7222
▁কাৰ্যকলাপ	-7223
▁বৈচিত্ৰ্য	-7224
▁সদস্যসকলে	-7225
▁তামিলনাডুত	-7226
▁পৰিকল্পনাৰ	-7227
▁স্পষ্টভাৱে	-7228
▁নৃত্যশিল্পী	-7229
▁ষ্টেডিয়ামত	-7230
▁সেনাবাহিনীৰ	-7231
▁সামগ্ৰিকভাৱে	-7232
উই	-7233
জো	-7234
ডু	-7235
ুভ	-7236
৭১	-7237
তেজ	-7238
িছা	-7239
োধী	-7240
ৰিম	-7241
ৱাত	-7242
▁থক	-7243
▁মঙ	-7244
▁৫৫	-7245
আইভি	-7246
ঙ্গল	-7247
জ্জা	-7248
নাথৰ	-7249
ন্ধৰ	-7250
বৰ্ম	-7251
ুণ্ঠ	-7252
ুৱান	-7253
ৃষ্ণ	-7254
▁কফি	-7255
▁গুগ	-7256
▁চিঞ	-7257
▁চিম	-7258
▁পুথ	-7259
▁পেই	-7260
▁ফাৰ	-7261
▁ভীম	-7262
▁মিঠ	-7263
▁মিহ	-7264
▁মীন	-7265
▁শৈল	-7266
▁সাদ	-7267
▁ৰিভ	-7268
ন্তুক	-7269
বিজ্ঞ	-7270
ৰিডাৰ	-7271
▁অৰুণ	-7272
▁এফচি	-7273
▁গৱেষ	-7274
▁চাউল	-7275
▁ঠেলি	-7276
▁নিৰু	-7277
▁ব্ৰে	-7278
▁সাংস	-7279
▁১৯৭৩	-7280
্ৰান্ত	-7281
▁অনুসূ	-7282
▁আকস্ম	-7283
▁কেইজন	-7284
▁চিষ্ট	-7285
▁ট্ৰফী	-7286
▁দ্রুত	-7287
▁ফাৰ্ম	-7288
▁বান্দ	-7289
▁ম্যাদ	-7290
▁শ্বেৰ	-7291
▁অনাময়	-7292
▁অশ্বাৰ	-7293
▁উপাসনা	-7294
▁কেইবাব	-7295
▁ক্লায়	-7296
▁গ্ৰহণৰ	-7297
▁ঘূৰ্ণী	-7298
▁ছবিখনক	-7299
▁দ্বীপৰ	-7300
▁পৰিধান	-7301
▁পৰিবেশ	-7302
▁সৌন্দৰ	-7303
▁কাহিনীৰ	-7304
▁চিনেমাৰ	-7305
▁চৰিত্ৰৰ	-7306
▁দেউতাকৰ	-7307
▁শনিবাৰে	-7308
▁ষ্ট্ৰোক	-7309
▁স্পেনিছ	-7310
▁ইংলেণ্ডত	-7311
▁কাৰাগাৰত	-7312
▁কেবিনেটৰ	-7313
▁চেন্নাইৰ	-7314
▁তৃতীয়টো	-7315
▁দৃশ্যমান	-7316
▁প্রশিক্ষ	-7317
▁ফিলিপাইন	-7318
▁বাসিন্দা	-7319
▁বিশ্বকাপ	-7320
▁জনসাধাৰণক	-7321
▁শ্ৰীলংকাৰ	-7322
▁সংখ্যালঘু	-7323
▁সদস্যসকলৰ	-7324
▁নিৰাপত্তাৰ	-7325
▁মধ্যযুগীয়	-7326
▁হায়দৰাবাদ	-7327
▁পেৰালিম্পিক	-7328
ধন	-7329
ুথ	-7330
কাং	-7331
খিক	-7332
গীত	-7333
ণিক	-7334
দেন	-7335
যুৱ	-7336
লিছ	-7337
ষ্ক	-7338
হাউ	-7339
িকল	-7340
ৰ্ন	-7341
▁জা	-7342
ঙালী	-7343
ছিছৰ	-7344
জয়ৰ	-7345
ঞ্চৰ	-7346
বৰ্গ	-7347
োৱেই	-7348
▁কণী	-7349
▁খাব	-7350
▁জাফ	-7351
▁টিট	-7352
▁পতা	-7353
▁ফাঁ	-7354
▁বুধ	-7355
▁মুক	-7356
▁ৰিক	-7357
ণ্টিক	-7358
ৱর্তী	-7359
ৱিষ্ট	-7360
▁আইআই	-7361
▁আতংক	-7362
▁ইউএছ	-7363
▁ছাউথ	-7364
▁জেমছ	-7365
▁পূবে	-7366
▁মহাভ	-7367
▁মাহে	-7368
▁যকৃত	-7369
▁লিখি	-7370
▁সংকল	-7371
▁সাঁত	-7372
▁১৯৬২	-7373
তামূলক	-7374
সপ্তাহ	-7375
িমিটাৰ	-7376
▁কবিতা	-7377
▁কলেজৰ	-7378
▁কেইখন	-7379
▁কোনেও	-7380
▁ঠিকনা	-7381
▁নিৰ্ম	-7382
▁মাত্র	-7383
▁মোগলৰ	-7384
▁১৯৮০ৰ	-7385
বিশ্বাস	-7386
ানুগতিক	-7387
▁অনুকূল	-7388
▁আশীৰ্ব	-7389
▁আৱশ্যক	-7390
▁চাহিদা	-7391
▁নিয়াৰ	-7392
▁পাউণ্ড	-7393
▁প্ৰডাক	-7394
▁পৰিহাৰ	-7395
▁বিশ্বত	-7396
▁বিহাৰৰ	-7397
▁যিবোৰে	-7398
▁সমষ্টি	-7399
কাৰীসকলক	-7400
▁আগন্তুক	-7401
▁কমনৱেলথ	-7402
▁গোবিন্দ	-7403
▁ন্যূনতম	-7404
▁পশ্চিমে	-7405
▁প্ৰৱণতা	-7406
▁বানপানী	-7407
▁আন্দামান	-7408
▁উল্লেখ্য	-7409
▁টেক্সাছৰ	-7410
▁পঞ্চায়ত	-7411
▁পৰিদৰ্শন	-7412
▁বৃহস্পতি	-7413
▁মাধ্যমিক	-7414
▁মাৰাত্মক	-7415
▁এক্সপ্ৰেছ	-7416
▁কেৰিয়াৰৰ	-7417
▁চেলছিয়াছ	-7418
▁হস্তান্তৰ	-7419
▁প্ৰস্তাৱিত	-7420
▁ব্যক্তিজনৰ	-7421
▁ব্ৰহ্মপুত্ৰ	-7422
▁স্থানীয়ভাৱে	-7423
।”	-7424
গি	-7425
জম	-7426
৭২	-7427
গিত	-7428
দাম	-7429
দূত	-7430
র্ঘ	-7431
লাল	-7432
লোড	-7433
হেঁ	-7434
েছৰ	-7435
োকা	-7436
োজী	-7437
পন্থ	-7438
ম্বে	-7439
সিংহ	-7440
াকৃত	-7441
াবাৰ	-7442
্ৰাম	-7443
▁এছে	-7444
▁ট্য	-7445
▁ডিছ	-7446
▁নুৰ	-7447
▁মাধ	-7448
▁সমল	-7449
▁সমী	-7450
▁৮০০	-7451
▁ৰছী	-7452
ঞ্চাৰ	-7453
সাগৰৰ	-7454
ৰাণিক	-7455
▁অন্ব	-7456
▁ইন্ধ	-7457
▁গধুৰ	-7458
▁গন্ত	-7459
▁ছন্দ	-7460
▁নগৰৰ	-7461
▁পঢ়া	-7462
▁প্রণ	-7463
▁বোলা	-7464
▁সকাহ	-7465
▁১৯৫৮	-7466
যাত্ৰা	-7467
ালীয়ে	-7468
িয়াৰৰ	-7469
▁অৱসৰৰ	-7470
▁কৰ্মী	-7471
▁দুগ্ধ	-7472
▁নীতিৰ	-7473
▁নৈতিক	-7474
▁বনোৱা	-7475
▁মাজতে	-7476
▁মেনেজ	-7477
ৰাকীয়ে	-7478
▁আয়োগৰ	-7479
▁আৱেগিক	-7480
▁উত্থান	-7481
▁একত্ৰী	-7482
▁কৃষ্ণৰ	-7483
▁দৈনন্দ	-7484
▁যুঁজাৰ	-7485
▁সংযোজন	-7486
▁সঞ্চাল	-7487
▁সঞ্জয়	-7488
▁সমুদ্ৰ	-7489
▁স্তন্য	-7490
▁এছিয়াত	-7491
▁ওড়িশাৰ	-7492
▁জয়ন্তী	-7493
▁টিকাকৰণ	-7494
▁দেখুৱাব	-7495
▁নিৰন্তৰ	-7496
▁পঠিয়াই	-7497
▁বহনক্ষম	-7498
▁বিষ্ণুৰ	-7499
▁ভাণ্ডাৰ	-7500
▁অংশগ্রহণ	-7501
▁ক্ষেত্ৰৰ	-7502
▁দিল্লীলৈ	-7503
▁পদক্ষেপৰ	-7504
▁সমাধিস্থ	-7505
▁অৱবাহিকাৰ	-7506
▁কিংবদন্তি	-7507
▁প্ৰদৰ্শনী	-7508
▁ব্ৰিটেইনৰ	-7509
▁অঞ্চলসমূহৰ	-7510
▁কম্পিউটাৰৰ	-7511
▁চিনাক্তকৰণ	-7512
▁পূৰ্বপুৰুষ	-7513
▁শ্ৰেণীবদ্ধ	-7514
▁সিদ্ধান্তৰ	-7515
▁অনুজ্ঞাপত্ৰ	-7516
▁দীৰ্ঘম্যাদী	-7517
▁ন্যায়ালয়ৰ	-7518
▁সন্ত্ৰাসবাদ	-7519
▁ৰাষ্ট্ৰপতিৰ	-7520
▁পুৰাতাত্ত্বিক	-7521
টছ	-7522
ঠী	-7523
ৈৰ	-7524
৭৪	-7525
এইছ	-7526
টাছ	-7527
ষেক	-7528
াঁৰ	-7529
ৰণে	-7530
▁কঁ	-7531
▁৪২	-7532
▁৫১	-7533
অভিন	-7534
গাৱা	-7535
পেয়	-7536
াঙ্গ	-7537
াপ্প	-7538
ুদ্দ	-7539
ূন্য	-7540
ৃশ্য	-7541
্নতা	-7542
্রিম	-7543
্ৰেল	-7544
▁ঘটো	-7545
▁চেট	-7546
▁ঠাক	-7547
▁পাট	-7548
▁ময়	-7549
▁মৰা	-7550
▁মৰু	-7551
▁শাক	-7552
▁শৈশ	-7553
▁১৭৫	-7554
উণ্ডৰ	-7555
▁আব্দ	-7556
▁কোষৰ	-7557
▁চিঠি	-7558
▁দণ্ড	-7559
▁নামি	-7560
▁নৰৱে	-7561
▁প্ৰভ	-7562
▁শ্বৰ	-7563
▁হাইভ	-7564
▁১৯৫২	-7565
▁ৰেংক	-7566
ক্ৰামক	-7567
জন্তুৰ	-7568
ষ্ট্ৰা	-7569
হেঁতেন	-7570
াইটিছৰ	-7571
▁অপহৰণ	-7572
▁উপভাষ	-7573
▁ঘটিছে	-7574
▁চিত্ত	-7575
▁তুৰ্ক	-7576
▁নির্ধ	-7577
▁পিতৃৰ	-7578
▁বিবাদ	-7579
▁মাতৃৰ	-7580
▁মৌচুম	-7581
▁ষ্টিভ	-7582
▁সমন্ব	-7583
▁সমৰ্প	-7584
▁সাগৰত	-7585
▁স্কেট	-7586
▁স্মিথ	-7587
▁এৱাৰ্ড	-7588
▁কমিউনি	-7589
▁খাইছিল	-7590
▁জনজাতি	-7591
▁তৰোৱাল	-7592
▁পৃষ্ঠা	-7593
▁ফাইনেল	-7594
▁সতীৰ্থ	-7595
▁সফলতাৰ	-7596
াত্ত্বিক	-7597
ানুষ্ঠান	-7598
▁খেলুৱৈক	-7599
▁গন্তব্য	-7600
▁তিনিবাৰ	-7601
▁নিশ্চয়	-7602
▁নিৰাময়	-7603
▁প্ৰাণীৰ	-7604
▁পৰিশ্ৰম	-7605
▁বাৰ্তাত	-7606
▁মহাভাৰত	-7607
▁মেৰামতি	-7608
▁শ্বুটিং	-7609
▁শ্ৰীনিব	-7610
▁সংশ্লেষ	-7611
▁সাগৰীয়	-7612
▁স্থাপিত	-7613
▁একাউণ্টত	-7614
▁চণ্ডীগড়	-7615
▁মহাকাব্য	-7616
▁মানদণ্ডৰ	-7617
▁শিশুসকলৰ	-7618
▁সংস্কৰণৰ	-7619
▁সম্পৰ্কত	-7620
▁সুবিধাজনক	-7621
▁দ্বিতীয়খন	-7622
▁বাভাৰিয়াৰ	-7623
▁ঐতিহাসিকভাৱে	-7624
'।	-7625
ভৌ	-7626
ছেল	-7627
ভাল	-7628
মাউ	-7629
মাল	-7630
র্প	-7631
িপু	-7632
ুঝা	-7633
্যু	-7634
▁১ম	-7635
▁৩৭	-7636
▁৪৮	-7637
ংগাৰ	-7638
দৃঢ়	-7639
ন্যৰ	-7640
মুলক	-7641
াইটৰ	-7642
াতেই	-7643
ামীণ	-7644
িমাৰ	-7645
িশ্ব	-7646
ৰ্মা	-7647
▁কওক	-7648
▁কীৰ	-7649
▁কোৱ	-7650
▁গুৰ	-7651
▁বীজ	-7652
▁মাম	-7653
▁লেফ	-7654
▁হাফ	-7655
▁ৰিজ	-7656
▁ৰেহ	-7657
সংযোগ	-7658
▁অণ্ট	-7659
▁কাৰা	-7660
▁কুঁহ	-7661
▁গৌতম	-7662
▁গ্রী	-7663
▁চীনত	-7664
▁ডিভি	-7665
▁নাইজ	-7666
▁পাওঁ	-7667
▁পেংগ	-7668
▁পৰিণ	-7669
▁মাৰ্	-7670
▁সতেজ	-7671
▁১৯২০	-7672
▁১৯৫৪	-7673
▁১৯৫৫	-7674
াৰ্জনৰ	-7675
ুদ্ৰিক	-7676
ৰণীয়া	-7677
▁কাঞ্চ	-7678
▁গাৰ্ড	-7679
▁গ্ৰাফ	-7680
▁জলপ্র	-7681
▁ট্ৰাক	-7682
▁দুৰ্ব	-7683
▁ধৰ্মত	-7684
▁পাৰিম	-7685
▁পোছাক	-7686
▁প্ৰথা	-7687
▁মঞ্চত	-7688
▁লাইনৰ	-7689
▁শিশুক	-7690
▁সজোৱা	-7691
▁সীমাৰ	-7692
▁সেনাই	-7693
▁হাঁহি	-7694
▁আয়োজক	-7695
▁এইবোৰে	-7696
▁কাপোৰৰ	-7697
▁দেৱতাৰ	-7698
▁দ্বাদশ	-7699
▁পাঁচখন	-7700
▁মাহিলী	-7701
▁শ্বাহৰ	-7702
▁সামগ্র	-7703
▁স্থগিত	-7704
▁উপনিৱেশ	-7705
▁গণৰাজ্য	-7706
▁প্রতিটো	-7707
▁প্ৰযোজক	-7708
▁পৰস্পৰৰ	-7709
▁পৰিৱেশৰ	-7710
▁বস্তুটো	-7711
▁বাজপেয়	-7712
▁বিষয়েও	-7713
▁মৰ্যাদা	-7714
▁লক্ষ্যত	-7715
▁সুৰাপান	-7716
▁স্বাৰ্থ	-7717
▁হিমালয়	-7718
▁অনুমোদিত	-7719
▁উৎসৰ্গিত	-7720
▁চৰিত্ৰটো	-7721
▁থিয়েটাৰ	-7722
▁দৈনন্দিন	-7723
▁দৈৰ্ঘ্যৰ	-7724
▁নৰেন্দ্র	-7725
▁সংৰক্ষণৰ	-7726
▁সত্ত্বেও	-7727
▁সম্পূর্ণ	-7728
▁ৰাষ্ট্ৰৰ	-7729
▁সামুদ্ৰিক	-7730
▁অগ্ৰাধিকাৰ	-7731
▁উন্নয়নশীল	-7732
▁চুক্তিপত্ৰ	-7733
▁হিন্দুসকলে	-7734
▁ৰাজত্বকালত	-7735
▁আঘাতপ্ৰাপ্ত	-7736
▁টুৰ্ণামেণ্ট	-7737
▁নিয়ন্ত্ৰিত	-7738
▁প্ৰধানমন্ত্ৰীৰ	-7739
বো	-7740
৩২	-7741
কিউ	-7742
জিট	-7743
নিত	-7744
ফাল	-7745
মুঠ	-7746
লিৰ	-7747
ষিত	-7748
াপে	-7749
িনো	-7750
িলো	-7751
েমৰ	-7752
ৰাং	-7753
▁৫২	-7754
াৰিক	-7755
িপ্ৰ	-7756
িস্ক	-7757
্ৰিম	-7758
ৰ্টছ	-7759
▁খিল	-7760
▁গোৰ	-7761
▁দাঁ	-7762
▁দাত	-7763
▁শপত	-7764
▁সমক	-7765
▁ৰোড	-7766
ষ্টেৰ	-7767
▁অমিত	-7768
▁আনুষ	-7769
▁গৌৰৱ	-7770
▁পুৱা	-7771
▁পূবত	-7772
▁ব্লু	-7773
▁মনটো	-7774
▁লাইভ	-7775
▁সঁচা	-7776
▁সহ্য	-7777
ক্ষৰিক	-7778
মেণ্টৰ	-7779
▁	-7780
ৰ	-7781
া	-7782
্	-7783
ি	-7784
ক	-7785
ত	-7786
ে	-7787
ন	-7788
ল	-7789
ব	-7790
য	-7791
প	-7792
ম	-7793
স	-7794
ু	-7795
হ	-7796
়	-7797
ো	-7798
ছ	-7799
ট	-7800
দ	-7801
আ	-7802
ী	-7803
চ	-7804
ই	-7805
।	-7806
গ	-7807
জ	-7808
ৱ	-7809
ৈ	-7810
শ	-7811
ষ	-7812
ভ	-7813
এ	-7814
ণ	-7815
অ	-7816
ধ	-7817
খ	-7818
থ	-7819
ড	-7820
ও	-7821
,	-7822
উ	-7823
ঁ	-7824
ং	-7825
ূ	-7826
০	-7827
১	-7828
ফ	-7829
ৃ	-7830
র	-7831
'	-7832
২	-7833
ঠ	-7834
-	-7835
’	-7836
৯	-7837
ঞ	-7838
ঘ	-7839
ৎ	-7840
৫	-7841
৮	-7842
৩	-7843
৭	-7844
৪	-7845
৬	-7846
ঙ	-7847
ৌ	-7848
.	-7849
"	-7850
)	-7851
(	-7852
ঢ	-7853
৷	-7854
:	-7855
ঃ	-7856
‘	-7857
ঔ	-7858
;	-7859
%	-7860
ঋ	-7861
–	-7862
!	-7863
ঐ	-7864
?	-7865
ঝ	-7866
“	-7867
/	-7868
”	-7869
ঈ	-7870
°	-7871
i	-7872
e	-7873
a	-7874
o	-7875
t	-7876
n	-7877
r	-7878
ঊ	-7879
—	-7880
I	-7881
s	-7882
c	-7883
d	-7884
•	-7885
x	-7886
A	-7887
l	-7888
m	-7889
S	-7890
‍	-7891
y	-7892
₹	-7893
h	-7894
+	-7895
u	-7896
v	-7897
C	-7898
M	-7899
[	-7900
]	-7901
p	-7902
·	-7903
f	-7904
B	-7905
N	-7906
g	-7907
F	-7908
w	-7909
1	-7910
D	-7911
2	-7912
P	-7913
′	-7914
T	-7915
4	-7916
H	-7917
b	-7918
−	-7919
#	-7920
3	-7921
=	-7922
R	-7923
$	-7924
G	-7925
E	-7926
k	-7927
|	-7928
*	-7929
U	-7930
X	-7931
0	-7932
8	-7933
K	-7934
L	-7935
£	-7936
α	-7937
β	-7938
⁄	-7939
7	-7940
<	-7941
O	-7942
Y	-7943
	-7944
5	-7945
V	-7946
॰	-7947
6	-7948
9	-7949
@	-7950
z	-7951
~	-7952
ː	-7953
त	-7954
्	-7955
J	-7956
W	-7957
_	-7958
j	-7959
×	-7960
ā	-7961
ς	-7962
ό	-7963
य	-7964
र	-7965
स	-7966
↵	-7967
`	-7968
­	-7969
®	-7970
±	-7971
ó	-7972
ē	-7973
ī	-7974
ś	-7975
̥	-7976
η	-7977
θ	-7978
λ	-7979
μ	-7980
ξ	-7981
ο	-7982
ρ	-7983
φ	-7984
ं	-7985
उ	-7986
द	-7987
म	-7988
ु	-7989
ो	-7990
৳	-7991
ṛ	-7992
→	-7993
≈	-7994
	-7995
